#include "magic_wand_model_data.h"

// We need to keep the data array aligned on some architectures.
#ifdef __has_attribute
#define HAVE_ATTRIBUTE(x) __has_attribute(x)
#else
#define HAVE_ATTRIBUTE(x) 0
#endif
#if HAVE_ATTRIBUTE(aligned) || (defined(__GNUC__) && !defined(__clang__))
#define DATA_ALIGN_ATTRIBUTE __attribute__((aligned(4)))
#else
#define DATA_ALIGN_ATTRIBUTE
#endif

const unsigned char g_magic_wand_model_data[] DATA_ALIGN_ATTRIBUTE = {
  // Paste the data of the char array in `src/model.cc` here
  0x08, 0x00, 0x00, 0x00, 0x54, 0x46, 0x4c, 0x33, 0x62, 0xff, 0xff, 0xff,
  0x03, 0x00, 0x00, 0x00, 0x10, 0x00, 0x00, 0x00, 0x24, 0x00, 0x00, 0x00,
  0x78, 0x00, 0x00, 0x00, 0x24, 0x00, 0x00, 0x00, 0x05, 0x00, 0x00, 0x00,
  0x78, 0x05, 0x00, 0x00, 0xb0, 0x04, 0x00, 0x00, 0xe0, 0x02, 0x00, 0x00,
  0x60, 0x02, 0x00, 0x00, 0x54, 0x01, 0x00, 0x00, 0x01, 0x00, 0x00, 0x00,
  0x78, 0x00, 0x00, 0x00, 0x13, 0x00, 0x00, 0x00, 0xd4, 0x2f, 0x00, 0x00,
  0xd0, 0x2f, 0x00, 0x00, 0xdc, 0x2e, 0x00, 0x00, 0x68, 0x2e, 0x00, 0x00,
  0xfc, 0x2d, 0x00, 0x00, 0xac, 0x11, 0x00, 0x00, 0x98, 0x10, 0x00, 0x00,
  0xbc, 0x0e, 0x00, 0x00, 0x60, 0x06, 0x00, 0x00, 0xfc, 0x05, 0x00, 0x00,
  0x78, 0x05, 0x00, 0x00, 0xa8, 0x2f, 0x00, 0x00, 0xa4, 0x2f, 0x00, 0x00,
  0xa0, 0x2f, 0x00, 0x00, 0x9c, 0x2f, 0x00, 0x00, 0x98, 0x2f, 0x00, 0x00,
  0x94, 0x2f, 0x00, 0x00, 0x90, 0x2f, 0x00, 0x00, 0x8c, 0x2f, 0x00, 0x00,
  0x0f, 0x00, 0x00, 0x00, 0x4d, 0x4c, 0x49, 0x52, 0x20, 0x43, 0x6f, 0x6e,
  0x76, 0x65, 0x72, 0x74, 0x65, 0x64, 0x2e, 0x00, 0x00, 0x00, 0x0e, 0x00,
  0x18, 0x00, 0x04, 0x00, 0x08, 0x00, 0x0c, 0x00, 0x10, 0x00, 0x14, 0x00,
  0x0e, 0x00, 0x00, 0x00, 0x14, 0x00, 0x00, 0x00, 0x5c, 0x00, 0x00, 0x00,
  0x60, 0x00, 0x00, 0x00, 0x64, 0x00, 0x00, 0x00, 0x84, 0x00, 0x00, 0x00,
  0x12, 0x00, 0x00, 0x00, 0x04, 0x2f, 0x00, 0x00, 0xa0, 0x2e, 0x00, 0x00,
  0xf8, 0x2d, 0x00, 0x00, 0x98, 0x2d, 0x00, 0x00, 0x30, 0x2d, 0x00, 0x00,
  0xdc, 0x10, 0x00, 0x00, 0xc0, 0x0f, 0x00, 0x00, 0xe4, 0x0d, 0x00, 0x00,
  0xa0, 0x05, 0x00, 0x00, 0x3c, 0x05, 0x00, 0x00, 0xb0, 0x04, 0x00, 0x00,
  0xe8, 0x03, 0x00, 0x00, 0x38, 0x03, 0x00, 0x00, 0xa4, 0x02, 0x00, 0x00,
  0x10, 0x02, 0x00, 0x00, 0x90, 0x01, 0x00, 0x00, 0xfc, 0x00, 0x00, 0x00,
  0x80, 0x00, 0x00, 0x00, 0x01, 0x00, 0x00, 0x00, 0x00, 0x00, 0x00, 0x00,
  0x01, 0x00, 0x00, 0x00, 0x11, 0x00, 0x00, 0x00, 0x08, 0x00, 0x00, 0x00,
  0x1c, 0x04, 0x00, 0x00, 0x58, 0x03, 0x00, 0x00, 0xc8, 0x02, 0x00, 0x00,
  0x24, 0x02, 0x00, 0x00, 0xac, 0x01, 0x00, 0x00, 0x10, 0x01, 0x00, 0x00,
  0x94, 0x00, 0x00, 0x00, 0x10, 0x00, 0x00, 0x00, 0x04, 0x00, 0x00, 0x00,
  0x6d, 0x61, 0x69, 0x6e, 0x00, 0x00, 0x00, 0x00, 0x8e, 0xff, 0xff, 0xff,
  0x00, 0x00, 0x00, 0x09, 0x04, 0x00, 0x00, 0x00, 0x1c, 0x00, 0x00, 0x00,
  0x10, 0x00, 0x00, 0x00, 0x04, 0x00, 0x00, 0x00, 0x4e, 0xd2, 0xff, 0xff,
  0x00, 0x00, 0x80, 0x3f, 0x01, 0x00, 0x00, 0x00, 0x11, 0x00, 0x00, 0x00,
  0x01, 0x00, 0x00, 0x00, 0x10, 0x00, 0x00, 0x00, 0xf6, 0xfb, 0xff, 0xff,
  0x00, 0x00, 0x00, 0x19, 0x01, 0x00, 0x00, 0x00, 0xce, 0xd1, 0xff, 0xff,
  0x10, 0x00, 0x00, 0x00, 0x12, 0x00, 0x00, 0x00, 0x14, 0x00, 0x00, 0x00,
  0x20, 0x00, 0x00, 0x00, 0x02, 0x00, 0x00, 0x00, 0x01, 0x00, 0x00, 0x00,
  0x03, 0x00, 0x00, 0x00, 0x08, 0x00, 0x00, 0x00, 0x49, 0x64, 0x65, 0x6e,
  0x74, 0x69, 0x74, 0x79, 0x00, 0x00, 0x00, 0x00, 0x08, 0xd2, 0xff, 0xff,
  0x00, 0x00, 0x0e, 0x00, 0x18, 0x00, 0x08, 0x00, 0x0c, 0x00, 0x10, 0x00,
  0x07, 0x00, 0x14, 0x00, 0x0e, 0x00, 0x00, 0x00, 0x00, 0x00, 0x00, 0x08,
  0x03, 0x00, 0x00, 0x00, 0x18, 0x00, 0x00, 0x00, 0x0c, 0x00, 0x00, 0x00,
  0x04, 0x00, 0x00, 0x00, 0xdc, 0xd1, 0xff, 0xff, 0x01, 0x00, 0x00, 0x00,
  0x10, 0x00, 0x00, 0x00, 0x03, 0x00, 0x00, 0x00, 0x0f, 0x00, 0x00, 0x00,
  0x05, 0x00, 0x00, 0x00, 0x02, 0x00, 0x00, 0x00, 0x46, 0xd2, 0xff, 0xff,
  0x10, 0x00, 0x00, 0x00, 0x11, 0x00, 0x00, 0x00, 0x14, 0x00, 0x00, 0x00,
  0x30, 0x00, 0x00, 0x00, 0x02, 0x00, 0x00, 0x00, 0x01, 0x00, 0x00, 0x00,
  0x03, 0x00, 0x00, 0x00, 0x1a, 0x00, 0x00, 0x00, 0x73, 0x65, 0x71, 0x75,
  0x65, 0x6e, 0x74, 0x69, 0x61, 0x6c, 0x2f, 0x64, 0x65, 0x6e, 0x73, 0x65,
  0x5f, 0x31, 0x2f, 0x42, 0x69, 0x61, 0x73, 0x41, 0x64, 0x64, 0x00, 0x00,
  0x38, 0xd2, 0xff, 0xff, 0xd6, 0xfd, 0xff, 0xff, 0x00, 0x00, 0x00, 0x08,
  0x03, 0x00, 0x00, 0x00, 0x24, 0x00, 0x00, 0x00, 0x18, 0x00, 0x00, 0x00,
  0x0c, 0x00, 0x00, 0x00, 0x00, 0x00, 0x06, 0x00, 0x08, 0x00, 0x07, 0x00,
  0x06, 0x00, 0x00, 0x00, 0x00, 0x00, 0x00, 0x01, 0x01, 0x00, 0x00, 0x00,
  0x0f, 0x00, 0x00, 0x00, 0x03, 0x00, 0x00, 0x00, 0x0e, 0x00, 0x00, 0x00,
  0x04, 0x00, 0x00, 0x00, 0x01, 0x00, 0x00, 0x00, 0xfe, 0xfc, 0xff, 0xff,
  0x00, 0x00, 0x00, 0x09, 0x01, 0x00, 0x00, 0x00, 0xd6, 0xd2, 0xff, 0xff,
  0x10, 0x00, 0x00, 0x00, 0x10, 0x00, 0x00, 0x00, 0x14, 0x00, 0x00, 0x00,
  0x2c, 0x00, 0x00, 0x00, 0x02, 0x00, 0x00, 0x00, 0x01, 0x00, 0x00, 0x00,
  0x10, 0x00, 0x00, 0x00, 0x15, 0x00, 0x00, 0x00, 0x73, 0x65, 0x71, 0x75,
  0x65, 0x6e, 0x74, 0x69, 0x61, 0x6c, 0x2f, 0x64, 0x65, 0x6e, 0x73, 0x65,
  0x2f, 0x52, 0x65, 0x6c, 0x75, 0x00, 0x00, 0x00, 0x1c, 0xd3, 0xff, 0xff,
  0x00, 0x00, 0x0a, 0x00, 0x10, 0x00, 0x04, 0x00, 0x08, 0x00, 0x0c, 0x00,
  0x0a, 0x00, 0x00, 0x00, 0x02, 0x00, 0x00, 0x00, 0x10, 0x00, 0x00, 0x00,
  0x04, 0x00, 0x00, 0x00, 0x01, 0x00, 0x00, 0x00, 0x0e, 0x00, 0x00, 0x00,
  0x02, 0x00, 0x00, 0x00, 0x0d, 0x00, 0x00, 0x00, 0x03, 0x00, 0x00, 0x00,
  0x7a, 0xfd, 0xff, 0xff, 0x00, 0x00, 0x00, 0x16, 0x01, 0x00, 0x00, 0x00,
  0x52, 0xd3, 0xff, 0xff, 0x10, 0x00, 0x00, 0x00, 0x0f, 0x00, 0x00, 0x00,
  0x14, 0x00, 0x00, 0x00, 0x30, 0x00, 0x00, 0x00, 0x02, 0x00, 0x00, 0x00,
  0x01, 0x00, 0x00, 0x00, 0x70, 0x00, 0x00, 0x00, 0x1a, 0x00, 0x00, 0x00,
  0x73, 0x65, 0x71, 0x75, 0x65, 0x6e, 0x74, 0x69, 0x61, 0x6c, 0x2f, 0x66,
  0x6c, 0x61, 0x74, 0x74, 0x65, 0x6e, 0x2f, 0x52, 0x65, 0x73, 0x68, 0x61,
  0x70, 0x65, 0x00, 0x00, 0x44, 0xd3, 0xff, 0xff, 0xe2, 0xfe, 0xff, 0xff,
  0x00, 0x00, 0x00, 0x05, 0x01, 0x00, 0x00, 0x00, 0x38, 0x00, 0x00, 0x00,
  0x2c, 0x00, 0x00, 0x00, 0x14, 0x00, 0x00, 0x00, 0x00, 0x00, 0x0e, 0x00,
  0x14, 0x00, 0x00, 0x00, 0x10, 0x00, 0x0c, 0x00, 0x08, 0x00, 0x04, 0x00,
  0x0e, 0x00, 0x00, 0x00, 0x03, 0x00, 0x00, 0x00, 0x01, 0x00, 0x00, 0x00,
  0x03, 0x00, 0x00, 0x00, 0x01, 0x00, 0x00, 0x00, 0x01, 0x00, 0x00, 0x00,
  0x0d, 0x00, 0x00, 0x00, 0x01, 0x00, 0x00, 0x00, 0x0c, 0x00, 0x00, 0x00,
  0xe2, 0xd3, 0xff, 0xff, 0x10, 0x00, 0x00, 0x00, 0x0e, 0x00, 0x00, 0x00,
  0x1c, 0x00, 0x00, 0x00, 0x40, 0x00, 0x00, 0x00, 0x04, 0x00, 0x00, 0x00,
  0x01, 0x00, 0x00, 0x00, 0x07, 0x00, 0x00, 0x00, 0x01, 0x00, 0x00, 0x00,
  0x10, 0x00, 0x00, 0x00, 0x22, 0x00, 0x00, 0x00, 0x73, 0x65, 0x71, 0x75,
  0x65, 0x6e, 0x74, 0x69, 0x61, 0x6c, 0x2f, 0x6d, 0x61, 0x78, 0x5f, 0x70,
  0x6f, 0x6f, 0x6c, 0x69, 0x6e, 0x67, 0x32, 0x64, 0x5f, 0x31, 0x2f, 0x4d,
  0x61, 0x78, 0x50, 0x6f, 0x6f, 0x6c, 0x00, 0x00, 0xe4, 0xd3, 0xff, 0xff,
  0xc2, 0xfe, 0xff, 0xff, 0x00, 0x00, 0x00, 0x01, 0x24, 0x00, 0x00, 0x00,
  0x18, 0x00, 0x00, 0x00, 0x04, 0x00, 0x00, 0x00, 0xb4, 0xfe, 0xff, 0xff,
  0x01, 0x00, 0x00, 0x00, 0x01, 0x00, 0x00, 0x00, 0x00, 0x00, 0x00, 0x01,
  0x01, 0x00, 0x00, 0x00, 0x0c, 0x00, 0x00, 0x00, 0x03, 0x00, 0x00, 0x00,
  0x0b, 0x00, 0x00, 0x00, 0x07, 0x00, 0x00, 0x00, 0x09, 0x00, 0x00, 0x00,
  0x72, 0xd4, 0xff, 0xff, 0x10, 0x00, 0x00, 0x00, 0x0d, 0x00, 0x00, 0x00,
  0x1c, 0x00, 0x00, 0x00, 0x2c, 0x00, 0x00, 0x00, 0x04, 0x00, 0x00, 0x00,
  0x01, 0x00, 0x00, 0x00, 0x15, 0x00, 0x00, 0x00, 0x01, 0x00, 0x00, 0x00,
  0x10, 0x00, 0x00, 0x00, 0x0c, 0x00, 0x00, 0x00, 0x74, 0x66, 0x6c, 0x2e,
  0x63, 0x6f, 0x6e, 0x76, 0x5f, 0x32, 0x64, 0x31, 0x00, 0x00, 0x00, 0x00,
  0xb8, 0xd4, 0xff, 0xff, 0x00, 0x00, 0x0e, 0x00, 0x1a, 0x00, 0x08, 0x00,
  0x0c, 0x00, 0x10, 0x00, 0x07, 0x00, 0x14, 0x00, 0x0e, 0x00, 0x00, 0x00,
  0x00, 0x00, 0x00, 0x05, 0x01, 0x00, 0x00, 0x00, 0x3c, 0x00, 0x00, 0x00,
  0x30, 0x00, 0x00, 0x00, 0x14, 0x00, 0x00, 0x00, 0x00, 0x00, 0x0e, 0x00,
  0x18, 0x00, 0x17, 0x00, 0x10, 0x00, 0x0c, 0x00, 0x08, 0x00, 0x04, 0x00,
  0x0e, 0x00, 0x00, 0x00, 0x03, 0x00, 0x00, 0x00, 0x03, 0x00, 0x00, 0x00,
  0x03, 0x00, 0x00, 0x00, 0x03, 0x00, 0x00, 0x00, 0x00, 0x00, 0x00, 0x01,
  0x01, 0x00, 0x00, 0x00, 0x0b, 0x00, 0x00, 0x00, 0x01, 0x00, 0x00, 0x00,
  0x0a, 0x00, 0x00, 0x00, 0x46, 0xff, 0xff, 0xff, 0x00, 0x00, 0x00, 0x11,
  0x01, 0x00, 0x00, 0x00, 0x1e, 0xd5, 0xff, 0xff, 0x10, 0x00, 0x00, 0x00,
  0x0c, 0x00, 0x00, 0x00, 0x1c, 0x00, 0x00, 0x00, 0x40, 0x00, 0x00, 0x00,
  0x04, 0x00, 0x00, 0x00, 0x01, 0x00, 0x00, 0x00, 0x15, 0x00, 0x00, 0x00,
  0x01, 0x00, 0x00, 0x00, 0x08, 0x00, 0x00, 0x00, 0x20, 0x00, 0x00, 0x00,
  0x73, 0x65, 0x71, 0x75, 0x65, 0x6e, 0x74, 0x69, 0x61, 0x6c, 0x2f, 0x6d,
  0x61, 0x78, 0x5f, 0x70, 0x6f, 0x6f, 0x6c, 0x69, 0x6e, 0x67, 0x32, 0x64,
  0x2f, 0x4d, 0x61, 0x78, 0x50, 0x6f, 0x6f, 0x6c, 0x00, 0x00, 0x00, 0x00,
  0x78, 0xd5, 0xff, 0xff, 0x00, 0x00, 0x0e, 0x00, 0x14, 0x00, 0x00, 0x00,
  0x08, 0x00, 0x0c, 0x00, 0x07, 0x00, 0x10, 0x00, 0x0e, 0x00, 0x00, 0x00,
  0x00, 0x00, 0x00, 0x01, 0x30, 0x00, 0x00, 0x00, 0x24, 0x00, 0x00, 0x00,
  0x10, 0x00, 0x00, 0x00, 0x0c, 0x00, 0x10, 0x00, 0x00, 0x00, 0x04, 0x00,
  0x08, 0x00, 0x0f, 0x00, 0x0c, 0x00, 0x00, 0x00, 0x01, 0x00, 0x00, 0x00,
  0x01, 0x00, 0x00, 0x00, 0x00, 0x00, 0x00, 0x01, 0x01, 0x00, 0x00, 0x00,
  0x0a, 0x00, 0x00, 0x00, 0x03, 0x00, 0x00, 0x00, 0x00, 0x00, 0x00, 0x00,
  0x06, 0x00, 0x00, 0x00, 0x08, 0x00, 0x00, 0x00, 0x00, 0x00, 0x0a, 0x00,
  0x0c, 0x00, 0x07, 0x00, 0x00, 0x00, 0x08, 0x00, 0x0a, 0x00, 0x00, 0x00,
  0x00, 0x00, 0x00, 0x03, 0x01, 0x00, 0x00, 0x00, 0xe2, 0xd5, 0xff, 0xff,
  0x10, 0x00, 0x00, 0x00, 0x0b, 0x00, 0x00, 0x00, 0x1c, 0x00, 0x00, 0x00,
  0x28, 0x00, 0x00, 0x00, 0x04, 0x00, 0x00, 0x00, 0x01, 0x00, 0x00, 0x00,
  0x40, 0x00, 0x00, 0x00, 0x03, 0x00, 0x00, 0x00, 0x08, 0x00, 0x00, 0x00,
  0x0b, 0x00, 0x00, 0x00, 0x74, 0x66, 0x6c, 0x2e, 0x63, 0x6f, 0x6e, 0x76,
  0x5f, 0x32, 0x64, 0x00, 0xcc, 0xd5, 0xff, 0xff, 0xc2, 0xd6, 0xff, 0xff,
  0x04, 0x00, 0x00, 0x00, 0x40, 0x00, 0x00, 0x00, 0xc3, 0x4d, 0xf5, 0xbe,
  0x63, 0x0e, 0x0e, 0xbf, 0x6a, 0x98, 0xe2, 0xbf, 0xc9, 0x9c, 0x81, 0xbf,
  0x13, 0x12, 0xa1, 0xbf, 0x1d, 0xf0, 0xa0, 0xbf, 0x17, 0x7e, 0x2f, 0xbf,
  0xed, 0xf1, 0x9c, 0xbe, 0x3c, 0x8f, 0x8e, 0x3f, 0xa8, 0x38, 0x24, 0x3d,
  0x38, 0xb6, 0x9e, 0x3f, 0xce, 0xf4, 0x8f, 0x3f, 0x19, 0xfa, 0x6e, 0x3e,
  0x30, 0xc6, 0x03, 0xbf, 0xc2, 0xf2, 0x2c, 0xbf, 0xdf, 0x52, 0xc9, 0xbe,
  0x6a, 0xd6, 0xff, 0xff, 0x10, 0x00, 0x00, 0x00, 0x0a, 0x00, 0x00, 0x00,
  0x10, 0x00, 0x00, 0x00, 0x20, 0x00, 0x00, 0x00, 0x01, 0x00, 0x00, 0x00,
  0x10, 0x00, 0x00, 0x00, 0x0d, 0x00, 0x00, 0x00, 0x73, 0x74, 0x64, 0x2e,
  0x63, 0x6f, 0x6e, 0x73, 0x74, 0x61, 0x6e, 0x74, 0x31, 0x00, 0x00, 0x00,
  0x4c, 0xd6, 0xff, 0xff, 0x42, 0xd7, 0xff, 0xff, 0x04, 0x00, 0x00, 0x00,
  0x20, 0x00, 0x00, 0x00, 0x07, 0x2a, 0xb6, 0xbe, 0x94, 0x87, 0x44, 0xbe,
  0xd9, 0xa3, 0x03, 0xc0, 0x93, 0xb1, 0x4a, 0xbe, 0x9b, 0x43, 0xbb, 0xbf,
  0xa2, 0x4b, 0x7f, 0xbe, 0xe7, 0x18, 0x8d, 0xbd, 0x1b, 0x63, 0xba, 0xbf,
  0xca, 0xd6, 0xff, 0xff, 0x10, 0x00, 0x00, 0x00, 0x09, 0x00, 0x00, 0x00,
  0x10, 0x00, 0x00, 0x00, 0x20, 0x00, 0x00, 0x00, 0x01, 0x00, 0x00, 0x00,
  0x08, 0x00, 0x00, 0x00, 0x0c, 0x00, 0x00, 0x00, 0x73, 0x74, 0x64, 0x2e,
  0x63, 0x6f, 0x6e, 0x73, 0x74, 0x61, 0x6e, 0x74, 0x00, 0x00, 0x00, 0x00,
  0xac, 0xd6, 0xff, 0xff, 0xa2, 0xd7, 0xff, 0xff, 0x04, 0x00, 0x00, 0x00,
  0x00, 0x08, 0x00, 0x00, 0xe7, 0xc7, 0x27, 0xbe, 0xc2, 0x49, 0x6e, 0xbf,
  0x1d, 0xee, 0xa7, 0x3e, 0xfd, 0x86, 0xdb, 0xbd, 0xa4, 0x70, 0x3a, 0x3d,
  0x68, 0x03, 0xc3, 0x3d, 0xf2, 0x66, 0x3d, 0xbf, 0xc0, 0x05, 0xff, 0xbd,
  0xcc, 0x2b, 0x86, 0x3d, 0xa0, 0x28, 0xd7, 0xbe, 0x55, 0x14, 0xf1, 0xbe,
  0x2e, 0xa0, 0x43, 0x3e, 0x52, 0xd2, 0x29, 0x3d, 0x72, 0xd9, 0x6e, 0x3e,
  0x13, 0x45, 0xa9, 0xbe, 0x9a, 0x65, 0x9e, 0xbe, 0xaa, 0x97, 0xb7, 0xbd,
  0x46, 0x69, 0xf5, 0xbd, 0x9a, 0xd2, 0xd0, 0xbe, 0xb3, 0xf0, 0x03, 0xbb,
  0x63, 0x71, 0xfa, 0xbc, 0xb1, 0x34, 0x07, 0xbe, 0x5c, 0x24, 0x06, 0xbe,
  0xde, 0x2e, 0x0c, 0xbe, 0x6f, 0xed, 0x01, 0x3d, 0xfd, 0x99, 0x0e, 0x3f,
  0x74, 0x50, 0x12, 0x3c, 0x41, 0x61, 0x3e, 0x3e, 0x37, 0xe4, 0x68, 0xbd,
  0x4f, 0x94, 0xee, 0xbd, 0x82, 0xb1, 0xcd, 0x3e, 0x07, 0x1f, 0x24, 0xbc,
  0xdb, 0xa5, 0x2b, 0xbf, 0x1a, 0x64, 0x0e, 0xbd, 0xa5, 0x22, 0x95, 0x3d,
  0x4d, 0xe5, 0x60, 0xbe, 0x57, 0x39, 0x9d, 0x3e, 0x58, 0xc6, 0xf2, 0xbd,
  0xfd, 0x61, 0x44, 0xbe, 0xd4, 0x8b, 0x03, 0x3e, 0x3e, 0x00, 0x52, 0x3c,
  0x96, 0x4c, 0x7d, 0xbf, 0x9d, 0xa6, 0xf8, 0x3e, 0xc8, 0xab, 0x53, 0xbf,
  0x48, 0xe5, 0xef, 0xbd, 0xa5, 0x0d, 0x84, 0xbe, 0xe4, 0x7f, 0x82, 0xbf,
  0x8d, 0x3d, 0x87, 0xbc, 0xce, 0xdf, 0x98, 0x3d, 0x54, 0x26, 0x02, 0xbf,
  0xb7, 0xd2, 0xd2, 0x3d, 0xa5, 0x5b, 0x25, 0xbe, 0x00, 0xd7, 0x80, 0xbe,
  0x29, 0x1b, 0x95, 0xbe, 0x28, 0x2b, 0xe5, 0xbe, 0xb7, 0x97, 0xb7, 0xbe,
  0x65, 0x92, 0x19, 0x3d, 0x7f, 0x49, 0x86, 0xbd, 0x72, 0xe5, 0x02, 0x3d,
  0xbd, 0x1d, 0x30, 0xbf, 0x52, 0x85, 0xa5, 0xbe, 0x52, 0x51, 0x96, 0xbf,
  0x7f, 0x62, 0x8c, 0x3e, 0x27, 0x49, 0xce, 0xbe, 0x71, 0x69, 0xf1, 0xbd,
  0x57, 0x21, 0x58, 0x3e, 0x56, 0x64, 0xcd, 0x3d, 0xd6, 0xd4, 0x8c, 0x3d,
  0x76, 0x80, 0x9d, 0xbd, 0x2a, 0x93, 0xa3, 0xbe, 0x4c, 0xce, 0xff, 0x3d,
  0x8a, 0x04, 0x21, 0x3f, 0x51, 0x90, 0x99, 0xbd, 0xcc, 0x5c, 0x88, 0xbe,
  0x20, 0xe7, 0xd2, 0x3c, 0xa7, 0x61, 0x30, 0xbf, 0x7a, 0xd4, 0x03, 0xbd,
  0xfd, 0x8c, 0x19, 0xbe, 0x5a, 0x30, 0x96, 0xbe, 0xef, 0x87, 0x81, 0xbe,
  0x68, 0x80, 0x33, 0x3d, 0x68, 0x1f, 0x2f, 0xbf, 0x08, 0x46, 0x07, 0x3e,
  0x24, 0x6e, 0x33, 0x3d, 0x93, 0x5e, 0x46, 0xbb, 0x38, 0xcc, 0xb8, 0x3e,
  0xbc, 0xd4, 0x30, 0xbf, 0x78, 0xbe, 0x9b, 0xbe, 0x70, 0x2b, 0xf7, 0x3c,
  0xf9, 0x65, 0x95, 0xbe, 0x1e, 0xa9, 0x16, 0xbf, 0x0c, 0x72, 0x84, 0x3e,
  0xe1, 0x2e, 0xe9, 0xbd, 0x8f, 0x10, 0x19, 0x3e, 0xed, 0x03, 0xa5, 0xbd,
  0xe7, 0x91, 0xa1, 0xbe, 0x7e, 0xd2, 0xc9, 0x3d, 0xb2, 0x87, 0xf7, 0xbe,
  0x99, 0xd6, 0x14, 0xbf, 0x32, 0x61, 0x91, 0xbe, 0x2b, 0x4f, 0xcf, 0xbe,
  0x6d, 0x5b, 0xfc, 0xbe, 0x4b, 0x61, 0xa3, 0xbe, 0xcd, 0xcb, 0x17, 0xbf,
  0x9d, 0x41, 0x70, 0xbd, 0x23, 0xbb, 0x42, 0xbd, 0xd9, 0xa7, 0x31, 0xbe,
  0x27, 0xa3, 0xce, 0x3d, 0x10, 0x9d, 0x6f, 0xbe, 0xca, 0x04, 0x1e, 0x3e,
  0x53, 0x89, 0xe5, 0x3d, 0x57, 0xce, 0xeb, 0xbd, 0xa0, 0x6d, 0x1d, 0xbc,
  0xe2, 0xf8, 0x1a, 0x3e, 0xd9, 0x54, 0xc4, 0x3d, 0xdd, 0xf0, 0xaf, 0xbe,
  0x46, 0x89, 0xac, 0xbe, 0x38, 0x64, 0x81, 0x3e, 0xbd, 0xe1, 0xb4, 0x3d,
  0xf1, 0xf2, 0xb3, 0x3d, 0x00, 0x31, 0xc6, 0xbc, 0x1c, 0x98, 0x4e, 0x3e,
  0x7d, 0x41, 0x33, 0xbd, 0xd4, 0x6c, 0x5b, 0x3c, 0x80, 0x50, 0x20, 0x3d,
  0xc5, 0xc5, 0x35, 0x3e, 0x75, 0x37, 0xbb, 0x3d, 0x88, 0x86, 0xd5, 0x3d,
  0xa2, 0x1d, 0xc8, 0xbe, 0xbd, 0xd6, 0x0a, 0x3e, 0xc1, 0x84, 0xc6, 0xbd,
  0x3c, 0x9b, 0xa3, 0x3e, 0x76, 0xe5, 0x6f, 0xbd, 0x7c, 0x21, 0xc8, 0xbe,
  0x9a, 0xde, 0x5d, 0xbd, 0xda, 0x56, 0xef, 0xbd, 0x96, 0x89, 0xb3, 0xbe,
  0x5b, 0x8e, 0x1a, 0x3e, 0x7e, 0x0d, 0x69, 0x3d, 0xd4, 0xac, 0xdf, 0x3e,
  0x36, 0xe3, 0x82, 0xbd, 0xe3, 0x9d, 0xd0, 0xbe, 0x8f, 0xbd, 0xd4, 0x3d,
  0x70, 0x50, 0x6d, 0x3e, 0xf5, 0xc5, 0x90, 0x3c, 0x48, 0xb3, 0x75, 0xbf,
  0xfa, 0xce, 0xdb, 0x3e, 0x70, 0xf5, 0x8b, 0xbf, 0xba, 0x85, 0x16, 0x3e,
  0xdc, 0x64, 0x88, 0x3d, 0xc6, 0x51, 0x66, 0xbf, 0x46, 0x71, 0x16, 0xbe,
  0x18, 0x5d, 0x52, 0x3e, 0x73, 0xfa, 0x11, 0xbf, 0x0d, 0xfa, 0x9c, 0xbc,
  0x5e, 0x1d, 0xb5, 0x3e, 0x4a, 0xb8, 0x8c, 0xbd, 0x47, 0x69, 0x9f, 0xbd,
  0x75, 0xfd, 0x94, 0xbe, 0xe6, 0x18, 0xa1, 0xbe, 0x2e, 0x52, 0x61, 0xbd,
  0x62, 0xed, 0x6f, 0x3e, 0x6e, 0x13, 0x7d, 0x3d, 0xab, 0x6a, 0xa9, 0x3d,
  0x37, 0xdb, 0x6b, 0xbe, 0x19, 0x92, 0x39, 0xbe, 0x82, 0xe9, 0x9c, 0x3e,
  0xc6, 0xaf, 0xaf, 0x3c, 0x52, 0x9f, 0x99, 0xbb, 0x68, 0xc2, 0x3b, 0x3e,
  0xd8, 0xf4, 0x75, 0x3d, 0x63, 0xbb, 0x4a, 0x3e, 0x25, 0x00, 0x85, 0xbe,
  0x09, 0xd7, 0xf6, 0xbe, 0xe1, 0xfe, 0x9c, 0x3e, 0xab, 0xe9, 0x8e, 0x3d,
  0x11, 0x3a, 0x8b, 0x3c, 0xba, 0xf3, 0xbf, 0xbe, 0xf3, 0x14, 0x2e, 0x3f,
  0xc0, 0x5d, 0x3a, 0xbf, 0x4d, 0x16, 0x9a, 0xbd, 0xe7, 0xb7, 0x8d, 0xbe,
  0xb2, 0xbc, 0xa0, 0xbe, 0x85, 0x02, 0xa0, 0xbd, 0xf2, 0xb4, 0x4e, 0xbe,
  0xa4, 0xbe, 0x7b, 0xbf, 0x10, 0x41, 0xa6, 0xbd, 0xa2, 0xa6, 0x4f, 0xbd,
  0x25, 0x47, 0xf0, 0x3d, 0x99, 0x5d, 0x63, 0x3e, 0xd3, 0x77, 0x69, 0xbf,
  0x48, 0x5e, 0x7b, 0xbe, 0x5c, 0xba, 0x9d, 0x3b, 0xad, 0xc8, 0x95, 0xba,
  0xf1, 0x3a, 0x1f, 0x3d, 0x38, 0x61, 0xaf, 0x3e, 0x12, 0x2c, 0x07, 0x3e,
  0x72, 0x15, 0x79, 0x3e, 0x7d, 0x7a, 0x83, 0x3d, 0x66, 0x5b, 0xca, 0x3c,
  0x58, 0xb2, 0x7d, 0xbe, 0x1e, 0xbd, 0x1a, 0xbe, 0xd2, 0xbb, 0x1c, 0xbe,
  0x27, 0x4f, 0x8b, 0x3c, 0xab, 0x69, 0x97, 0x3e, 0x0e, 0xe5, 0xab, 0x3d,
  0xc6, 0xaf, 0x2a, 0xbd, 0x1a, 0x70, 0xf7, 0x3d, 0xa7, 0xaa, 0xa8, 0xbd,
  0xf1, 0xd8, 0x9a, 0xbd, 0x4d, 0xdc, 0x23, 0x3e, 0x1d, 0x63, 0xa8, 0x3d,
  0x47, 0x0a, 0x3a, 0xbe, 0x21, 0x18, 0x62, 0x3e, 0x6f, 0x44, 0xaa, 0x3c,
  0xc5, 0x26, 0xc8, 0xbd, 0x31, 0x4d, 0x4d, 0x3d, 0xd5, 0x37, 0x80, 0xbe,
  0xa7, 0x55, 0xbf, 0xbe, 0x30, 0x39, 0x20, 0xbe, 0xb3, 0x4a, 0x2f, 0xbe,
  0x3e, 0x2d, 0xd1, 0xbe, 0xe3, 0xcd, 0x4d, 0xbe, 0xed, 0x74, 0x61, 0xbe,
  0x9b, 0x4b, 0x19, 0xbf, 0x5b, 0x91, 0x8d, 0xbe, 0x3f, 0x77, 0x09, 0x3f,
  0xda, 0x5b, 0x0a, 0xbf, 0x65, 0x53, 0x3c, 0xbe, 0x6b, 0x48, 0x92, 0xbe,
  0xd2, 0x18, 0x06, 0xbe, 0x74, 0xf7, 0xa1, 0xbe, 0x52, 0x8c, 0xe1, 0xbe,
  0x9e, 0x5b, 0x11, 0xbe, 0x8d, 0x77, 0x1f, 0x3e, 0x65, 0x4a, 0x1d, 0x3e,
  0x96, 0x4a, 0xd4, 0xbd, 0x20, 0xd2, 0x9b, 0x3c, 0x07, 0x89, 0x54, 0xbe,
  0x0d, 0xf6, 0x80, 0xbe, 0x8d, 0xfd, 0x0f, 0xbd, 0x14, 0x88, 0xe0, 0xbd,
  0x6e, 0x68, 0xdb, 0xbc, 0x6e, 0xd0, 0x7f, 0x3d, 0x8e, 0x90, 0xc9, 0x3e,
  0x7e, 0x62, 0x5a, 0x3d, 0xd9, 0x2c, 0x06, 0xbe, 0x52, 0xd0, 0x7d, 0xbe,
  0xb3, 0x8d, 0x3f, 0xbe, 0xdb, 0x82, 0xf3, 0x3c, 0x52, 0x3a, 0x03, 0xbc,
  0x34, 0x47, 0x16, 0x3f, 0xb7, 0xe6, 0xc3, 0x3d, 0x56, 0xb9, 0x85, 0xbd,
  0x2b, 0x74, 0x30, 0xbc, 0x20, 0x4c, 0xf5, 0x3d, 0xa5, 0x4f, 0x21, 0x3e,
  0xd4, 0x1a, 0x19, 0xbf, 0xad, 0xaa, 0xd2, 0x3e, 0xc3, 0x57, 0xd7, 0xbe,
  0x05, 0x59, 0x9d, 0xbd, 0x82, 0x1c, 0xb7, 0xbe, 0x6c, 0x5d, 0xc5, 0xbe,
  0xab, 0x5f, 0xc4, 0x3d, 0xf9, 0xdb, 0xf1, 0x3c, 0x54, 0xc7, 0xc2, 0xbe,
  0xfe, 0x29, 0x27, 0xbf, 0xa7, 0x18, 0xb6, 0xbe, 0x5a, 0xd1, 0x50, 0xbe,
  0xd1, 0xc2, 0x7e, 0xbf, 0x2d, 0xcd, 0x4a, 0xbe, 0x41, 0x67, 0x6b, 0xbd,
  0x3d, 0x43, 0xd5, 0xbc, 0x61, 0x36, 0x06, 0xbe, 0x4d, 0x8d, 0x83, 0x3d,
  0x29, 0x09, 0x02, 0xbd, 0x95, 0x03, 0x7b, 0xbe, 0x9f, 0x22, 0x82, 0xbe,
  0xe3, 0xf0, 0xcc, 0x3d, 0x62, 0x47, 0x63, 0x3d, 0xe6, 0x32, 0xa1, 0xbe,
  0xdb, 0x4a, 0x6e, 0xbe, 0xf0, 0xfd, 0xd7, 0xbb, 0x88, 0x60, 0x66, 0x3e,
  0x7b, 0xd1, 0xb2, 0x3e, 0x63, 0x52, 0xab, 0x3d, 0xa4, 0xd0, 0xc2, 0xbe,
  0x23, 0x1c, 0x69, 0xbc, 0xb0, 0xdb, 0xb5, 0x3b, 0xf0, 0xc6, 0xdc, 0xbd,
  0xb9, 0x5e, 0x40, 0x3e, 0xbf, 0xe0, 0x59, 0x3e, 0x91, 0xbb, 0x28, 0xbe,
  0xe2, 0xba, 0x1d, 0x3d, 0x22, 0x7b, 0xfe, 0xbd, 0xae, 0x0c, 0xd0, 0xbd,
  0x10, 0x1f, 0xf3, 0xba, 0x5a, 0x8c, 0xea, 0xbd, 0xa3, 0x66, 0x3f, 0x3e,
  0x02, 0x02, 0xc6, 0x3e, 0x7f, 0x46, 0x1c, 0xbe, 0x3f, 0xed, 0x7a, 0x3e,
  0x6d, 0x28, 0x91, 0xbd, 0x94, 0x8f, 0xe8, 0xbd, 0xd7, 0x99, 0xa8, 0x3d,
  0xfb, 0x2d, 0xfd, 0xbd, 0x15, 0x75, 0x66, 0xbc, 0xce, 0x4e, 0xcb, 0x3d,
  0x12, 0x37, 0xf6, 0x3e, 0x76, 0x5e, 0x43, 0x3e, 0xb0, 0x72, 0x04, 0xbe,
  0x1e, 0x86, 0x05, 0x3d, 0x61, 0x9c, 0x26, 0xbe, 0xf2, 0x0e, 0xd9, 0xbd,
  0x03, 0x9c, 0x29, 0xbe, 0x33, 0x63, 0x5b, 0xbd, 0x93, 0xea, 0x62, 0x3c,
  0x2f, 0xb6, 0xc6, 0x3d, 0xf1, 0x6d, 0x09, 0x3d, 0xc6, 0xb5, 0x89, 0xbc,
  0x61, 0x39, 0xe1, 0x3e, 0x2a, 0xb9, 0x97, 0xbe, 0xc8, 0x60, 0x17, 0xbf,
  0x43, 0x4b, 0x17, 0xbf, 0xa0, 0x9b, 0x52, 0xbe, 0x55, 0xef, 0xeb, 0xbe,
  0x46, 0x43, 0x98, 0xbe, 0xf4, 0x87, 0x39, 0xbe, 0x27, 0x14, 0x11, 0xbe,
  0xa2, 0xfb, 0x7a, 0xbe, 0xe4, 0x99, 0x18, 0xbe, 0x1e, 0x62, 0x2b, 0xbf,
  0x0e, 0x54, 0x37, 0xbe, 0x70, 0xc4, 0x2e, 0xbf, 0xe4, 0x43, 0x97, 0xbb,
  0x1b, 0xa9, 0x58, 0xbd, 0xfe, 0x27, 0xd4, 0xbd, 0xd4, 0x19, 0x38, 0x3d,
  0x23, 0x65, 0xfd, 0x3d, 0xb9, 0x20, 0xc4, 0xbd, 0x7a, 0xe9, 0xa4, 0xbd,
  0x61, 0xd9, 0x05, 0x3e, 0xf1, 0xb2, 0x9e, 0x3d, 0xf0, 0x17, 0x90, 0x3c,
  0x67, 0x7c, 0x35, 0xbe, 0xf3, 0xe5, 0xa7, 0x3d, 0x71, 0xb9, 0xe2, 0xbb,
  0xde, 0x38, 0x69, 0x3d, 0x47, 0x70, 0xf9, 0x3e, 0x16, 0x40, 0x6e, 0x3e,
  0x34, 0x92, 0xb8, 0x3d, 0x3e, 0x9a, 0x46, 0x3d, 0x4e, 0xcb, 0xca, 0xbc,
  0xb1, 0x1e, 0x98, 0xbe, 0x93, 0x10, 0x24, 0x3e, 0xe3, 0xc1, 0xe7, 0xbe,
  0x31, 0xb5, 0x76, 0x3e, 0x4f, 0xc1, 0x55, 0x3e, 0x49, 0xcd, 0x96, 0xbe,
  0x5b, 0xc7, 0x81, 0x3e, 0x14, 0x9d, 0x4a, 0x3b, 0x1a, 0xab, 0x2d, 0xbf,
  0x4e, 0x6b, 0xfa, 0xbd, 0xe9, 0x4e, 0x72, 0xbf, 0xca, 0x30, 0x74, 0xbe,
  0xfb, 0xbb, 0x87, 0xbf, 0xd0, 0xf5, 0x4c, 0xbf, 0xb4, 0x07, 0x00, 0xbf,
  0x70, 0x1c, 0x7f, 0x3b, 0xfd, 0x37, 0x68, 0xbe, 0xef, 0xc8, 0x1c, 0xbe,
  0x66, 0x84, 0x2c, 0xbf, 0x5a, 0x61, 0x56, 0xbf, 0xf0, 0x33, 0xb8, 0xbf,
  0xd4, 0x7f, 0xab, 0x3d, 0x5f, 0x88, 0xe1, 0xbe, 0x03, 0x82, 0x29, 0xbd,
  0xda, 0xee, 0xb7, 0x3e, 0x83, 0xdd, 0x9e, 0xbc, 0x03, 0xfe, 0x18, 0xbf,
  0xb8, 0xab, 0xa0, 0xbe, 0x58, 0x79, 0xc3, 0x3e, 0x07, 0x8b, 0x40, 0x3e,
  0x06, 0xbc, 0x79, 0xbd, 0xc7, 0x38, 0xc4, 0x3d, 0xc9, 0x0b, 0x9a, 0xbe,
  0x72, 0x8d, 0x4b, 0x3e, 0x24, 0x1d, 0x39, 0x3e, 0x14, 0x49, 0x0b, 0xbf,
  0x6a, 0xc6, 0x48, 0xbe, 0xac, 0x57, 0x96, 0xbe, 0x71, 0x0e, 0x05, 0xbd,
  0x51, 0x41, 0x8b, 0xbe, 0x5b, 0x5b, 0x0e, 0xbe, 0xd7, 0x4d, 0xab, 0xbd,
  0x61, 0xf0, 0x9b, 0xbe, 0x79, 0x04, 0xb7, 0x3e, 0x3b, 0xc6, 0xc1, 0xbe,
  0x10, 0x4c, 0x80, 0xbe, 0x6e, 0x4b, 0x8f, 0x3d, 0xe1, 0x8f, 0xd8, 0xbd,
  0x86, 0x87, 0xb3, 0xbe, 0x0a, 0xa1, 0x98, 0x3d, 0x8d, 0x0d, 0xf6, 0xbe,
  0xa0, 0xa2, 0x7e, 0x3d, 0xf9, 0x6b, 0x22, 0xbc, 0xe3, 0x64, 0x99, 0xbe,
  0x0c, 0xa6, 0x3a, 0x3e, 0x4c, 0x30, 0xed, 0x3d, 0xa9, 0xf3, 0xf6, 0xbd,
  0xee, 0xda, 0xef, 0x3c, 0x82, 0x7d, 0x7f, 0xbd, 0xd3, 0x5f, 0x51, 0x3d,
  0x80, 0x06, 0x08, 0xbe, 0x6c, 0xab, 0x8b, 0xbd, 0xde, 0xf1, 0xd8, 0x3c,
  0x31, 0x8e, 0x64, 0xbe, 0x66, 0xa2, 0x25, 0xbe, 0x57, 0xd7, 0x44, 0xbe,
  0x2a, 0xac, 0x44, 0xbe, 0x2c, 0x41, 0x89, 0xbd, 0x87, 0xde, 0x0d, 0xbb,
  0x7a, 0x6a, 0x98, 0xbd, 0xa4, 0xb4, 0x39, 0x3d, 0x2d, 0xd3, 0x45, 0xbd,
  0xe2, 0x07, 0x1a, 0x3e, 0x98, 0xaa, 0xb1, 0x3c, 0x09, 0x69, 0xdb, 0x3c,
  0x60, 0x3d, 0x12, 0x3e, 0x11, 0x63, 0x4e, 0xbe, 0xe5, 0x10, 0x8f, 0x3d,
  0x00, 0x29, 0x54, 0x3c, 0xa9, 0xb7, 0x68, 0xbe, 0x92, 0x3b, 0xa0, 0xbc,
  0xa4, 0x5f, 0x52, 0x3e, 0x20, 0x73, 0x16, 0xbe, 0xc8, 0x02, 0xd7, 0x3e,
  0x2c, 0xe2, 0x81, 0xbe, 0xb7, 0x19, 0x2d, 0xbd, 0xc4, 0x59, 0x27, 0x3b,
  0x90, 0x6b, 0xe3, 0xbd, 0xb8, 0xe5, 0x32, 0xbe, 0xe3, 0x6c, 0x95, 0xbd,
  0x94, 0x55, 0x8c, 0xbe, 0xc4, 0xf5, 0x2f, 0xbe, 0x41, 0xbf, 0xc2, 0xbd,
  0x10, 0x5e, 0xd2, 0xbd, 0xc1, 0x23, 0xf4, 0x3c, 0x53, 0x74, 0xe2, 0x3e,
  0x7b, 0x1d, 0xcb, 0xbe, 0x4f, 0xde, 0x69, 0xbe, 0x40, 0x03, 0x1e, 0x3e,
  0xec, 0x1b, 0x36, 0xbc, 0x21, 0x6a, 0x68, 0xbe, 0xf6, 0x0a, 0x92, 0xbe,
  0x38, 0xeb, 0x27, 0xbe, 0x8a, 0xd9, 0x95, 0x3d, 0xc9, 0x9d, 0x49, 0x3e,
  0xd0, 0x39, 0x53, 0xbe, 0x09, 0x4a, 0x9d, 0x3d, 0xe4, 0x82, 0x1c, 0xbd,
  0x37, 0x37, 0x98, 0xbe, 0x57, 0x82, 0x22, 0x3e, 0x89, 0xbb, 0x72, 0xbd,
  0x16, 0x66, 0xba, 0x3d, 0x01, 0xc2, 0xbb, 0x3d, 0xb0, 0xd2, 0xc8, 0x3e,
  0x93, 0x40, 0x65, 0x3e, 0x78, 0x57, 0x97, 0xbe, 0x92, 0xe3, 0xbf, 0xbe,
  0x8c, 0x4d, 0x88, 0x3e, 0x15, 0x3e, 0x07, 0x3e, 0x50, 0x65, 0xde, 0xbc,
  0x21, 0x57, 0x9c, 0xbe, 0xef, 0x43, 0xcd, 0x3e, 0x6e, 0x68, 0x11, 0xbf,
  0x82, 0x0d, 0x8e, 0xbc, 0xc5, 0xda, 0x70, 0xbd, 0x65, 0xeb, 0x85, 0xbe,
  0x5a, 0xb2, 0x23, 0xbd, 0x45, 0x98, 0x26, 0x3f, 0x4c, 0xdc, 0x60, 0xbe,
  0x05, 0xf7, 0xc9, 0xbd, 0x11, 0x54, 0x3b, 0xbe, 0x50, 0xc7, 0x9a, 0xbe,
  0x14, 0x4f, 0xe7, 0xbe, 0x4b, 0x99, 0xb3, 0xbd, 0xfb, 0xad, 0xc1, 0xbe,
  0xff, 0xd3, 0xcb, 0x3e, 0x33, 0x61, 0x15, 0x3e, 0x3b, 0xe2, 0x81, 0xbe,
  0xee, 0x93, 0xa2, 0x3e, 0x77, 0x09, 0x78, 0xbe, 0x69, 0x6a, 0x07, 0x3e,
  0x99, 0x44, 0xa4, 0x3c, 0xaa, 0xdd, 0x72, 0x3c, 0x76, 0x86, 0xd9, 0xbd,
  0x08, 0x38, 0x9b, 0x3d, 0x54, 0xad, 0xb6, 0x3c, 0xa9, 0x90, 0x0b, 0x3d,
  0x2f, 0x8f, 0x5a, 0xbd, 0xd0, 0xec, 0xbf, 0x3d, 0xfc, 0xe4, 0x8c, 0x3c,
  0x5b, 0x39, 0x0d, 0xbe, 0x27, 0x14, 0x18, 0x3e, 0xde, 0xbd, 0x57, 0xbd,
  0xfd, 0x65, 0xe8, 0x3b, 0x77, 0x0f, 0xdb, 0x3e, 0x6a, 0xdb, 0x6c, 0x3c,
  0x60, 0xe5, 0x2e, 0x3e, 0x8f, 0x23, 0xae, 0xbd, 0x6b, 0x7a, 0x30, 0xbe,
  0x0a, 0xdf, 0xff, 0xff, 0x10, 0x00, 0x00, 0x00, 0x08, 0x00, 0x00, 0x00,
  0x1c, 0x00, 0x00, 0x00, 0x38, 0x00, 0x00, 0x00, 0x04, 0x00, 0x00, 0x00,
  0x10, 0x00, 0x00, 0x00, 0x04, 0x00, 0x00, 0x00, 0x01, 0x00, 0x00, 0x00,
  0x08, 0x00, 0x00, 0x00, 0x1a, 0x00, 0x00, 0x00, 0x73, 0x65, 0x71, 0x75,
  0x65, 0x6e, 0x74, 0x69, 0x61, 0x6c, 0x2f, 0x63, 0x6f, 0x6e, 0x76, 0x32,
  0x64, 0x5f, 0x31, 0x2f, 0x43, 0x6f, 0x6e, 0x76, 0x32, 0x44, 0x00, 0x00,
  0x04, 0xdf, 0xff, 0xff, 0xfa, 0xdf, 0xff, 0xff, 0x04, 0x00, 0x00, 0x00,
  0x80, 0x01, 0x00, 0x00, 0x56, 0x7e, 0xd1, 0x3e, 0xbd, 0x24, 0xa5, 0x3d,
  0x99, 0xde, 0x83, 0x3e, 0xee, 0x0b, 0xd0, 0x3e, 0x7f, 0x8d, 0x40, 0xbe,
  0xa5, 0xcc, 0x63, 0x3d, 0x9b, 0x94, 0xfa, 0x3d, 0x87, 0xc6, 0x30, 0x3d,
  0xbd, 0x52, 0x98, 0xbe, 0x09, 0x52, 0xa8, 0x3e, 0xc7, 0x2c, 0x33, 0xbe,
  0x08, 0x84, 0xb4, 0xbe, 0x39, 0xfc, 0x49, 0x3e, 0x2b, 0xfc, 0x0d, 0xbe,
  0x75, 0x91, 0x53, 0xbd, 0x06, 0x31, 0x03, 0x3e, 0x47, 0xea, 0x47, 0xbd,
  0x6b, 0x60, 0x9e, 0xbe, 0x1b, 0xc5, 0xcf, 0xbd, 0x32, 0x73, 0x0f, 0xbe,
  0x9e, 0xcd, 0x7a, 0xbd, 0x86, 0x89, 0x50, 0x3e, 0x46, 0xe0, 0x90, 0xbe,
  0x20, 0xea, 0x43, 0x3e, 0xd7, 0xdb, 0x3a, 0x3d, 0x45, 0x1d, 0xd0, 0xbe,
  0x8a, 0x89, 0xc5, 0x3d, 0xfc, 0x60, 0x28, 0x3e, 0x5a, 0x14, 0x54, 0xbe,
  0x94, 0x72, 0xb5, 0xbd, 0xad, 0xb2, 0x99, 0xbd, 0xbe, 0x6c, 0xc9, 0x3c,
  0x8b, 0x76, 0xd0, 0xbd, 0x12, 0xf7, 0x9c, 0xbe, 0xf6, 0x6b, 0xdc, 0x3e,
  0xa0, 0x89, 0x2e, 0xbe, 0x54, 0x65, 0xc6, 0xbe, 0x00, 0x7f, 0xc3, 0x3e,
  0xa0, 0x0f, 0x0c, 0xbf, 0xd7, 0xab, 0xa1, 0xbd, 0x70, 0x38, 0xd4, 0xbe,
  0xe9, 0x71, 0x81, 0xbd, 0x50, 0xb5, 0x4d, 0xbd, 0x71, 0xfe, 0x0f, 0xbe,
  0x99, 0xa5, 0xbc, 0xbd, 0x67, 0x36, 0xc9, 0xbe, 0xe7, 0x57, 0x12, 0xbb,
  0xcb, 0xd4, 0x96, 0x3d, 0x55, 0xf2, 0x17, 0xbf, 0xe3, 0x81, 0x3c, 0xbe,
  0x32, 0x3d, 0x84, 0xbe, 0x45, 0x20, 0x8e, 0xbe, 0x0a, 0x0a, 0x2c, 0x3e,
  0xe0, 0x41, 0xbd, 0xbe, 0xbc, 0xe8, 0x49, 0xbe, 0x07, 0x21, 0xce, 0x3d,
  0xf7, 0x6f, 0x51, 0xbe, 0xae, 0xc9, 0xec, 0xbe, 0xd1, 0x7f, 0x9e, 0x3d,
  0x9c, 0x69, 0xb8, 0xbe, 0x93, 0xd3, 0x89, 0xbe, 0x50, 0xaa, 0x3b, 0x3e,
  0xab, 0x8a, 0xf8, 0xbd, 0x77, 0x2e, 0xff, 0xbe, 0xc6, 0xfe, 0x63, 0xbe,
  0x17, 0x11, 0x6b, 0xbe, 0x5b, 0xeb, 0xe5, 0xbe, 0x9d, 0xc0, 0xcf, 0x3d,
  0x88, 0x08, 0x9b, 0xbe, 0xd0, 0xb1, 0x00, 0xbf, 0x15, 0xee, 0xaa, 0xbd,
  0x65, 0x3f, 0x61, 0xbe, 0x51, 0xd0, 0x07, 0xbc, 0x04, 0x7a, 0x2e, 0x3c,
  0xe2, 0x44, 0x78, 0x3c, 0x42, 0x3c, 0xb4, 0xbe, 0x12, 0x20, 0x16, 0xbe,
  0xa2, 0x70, 0x28, 0xbd, 0x27, 0x98, 0x0b, 0xbf, 0x93, 0xd4, 0x0c, 0x3d,
  0xb4, 0xfc, 0xba, 0x3d, 0x38, 0x4c, 0x67, 0xbe, 0x22, 0xd1, 0x92, 0xbd,
  0x76, 0xa4, 0x38, 0xbe, 0xac, 0xea, 0x41, 0xbe, 0xe1, 0xf8, 0x37, 0xbe,
  0xd1, 0x34, 0x35, 0x3d, 0xde, 0xfa, 0xa4, 0xbe, 0x74, 0x87, 0x19, 0xbd,
  0x81, 0x9a, 0x66, 0x3d, 0x9d, 0x97, 0x8a, 0xbe, 0x03, 0xd9, 0x09, 0xbd,
  0xed, 0xfe, 0x0b, 0xbc, 0x3a, 0x54, 0x65, 0x3e, 0x41, 0x68, 0x6b, 0x3c,
  0x85, 0xec, 0xea, 0x3c, 0xe2, 0xe0, 0xff, 0xff, 0x10, 0x00, 0x00, 0x00,
  0x07, 0x00, 0x00, 0x00, 0x1c, 0x00, 0x00, 0x00, 0x38, 0x00, 0x00, 0x00,
  0x04, 0x00, 0x00, 0x00, 0x08, 0x00, 0x00, 0x00, 0x04, 0x00, 0x00, 0x00,
  0x03, 0x00, 0x00, 0x00, 0x01, 0x00, 0x00, 0x00, 0x18, 0x00, 0x00, 0x00,
  0x73, 0x65, 0x71, 0x75, 0x65, 0x6e, 0x74, 0x69, 0x61, 0x6c, 0x2f, 0x63,
  0x6f, 0x6e, 0x76, 0x32, 0x64, 0x2f, 0x43, 0x6f, 0x6e, 0x76, 0x32, 0x44,
  0x00, 0x00, 0x00, 0x00, 0xdc, 0xe0, 0xff, 0xff, 0xd2, 0xe1, 0xff, 0xff,
  0x04, 0x00, 0x00, 0x00, 0xc0, 0x00, 0x00, 0x00, 0xdd, 0x77, 0x09, 0xbd,
  0x1c, 0xc3, 0xca, 0x3e, 0x35, 0xfe, 0x28, 0x3b, 0x2b, 0x30, 0x59, 0xbd,
  0x6f, 0x04, 0xec, 0xbe, 0x4f, 0x9d, 0x9f, 0xbe, 0xd4, 0xb4, 0x75, 0x3e,
  0x30, 0x52, 0xe4, 0x3e, 0x14, 0x9e, 0x90, 0xbd, 0x38, 0x52, 0xb0, 0x3e,
  0x96, 0x53, 0x13, 0xbe, 0xfe, 0xf1, 0x2b, 0x3e, 0xc9, 0xe5, 0x23, 0xbe,
  0xe3, 0x02, 0x82, 0xbe, 0x86, 0x6d, 0x2a, 0x3f, 0x9f, 0xbc, 0xfb, 0x3d,
  0xa5, 0xa8, 0x21, 0x3b, 0x82, 0xfb, 0xbb, 0x3e, 0x33, 0x62, 0x36, 0x3e,
  0xc3, 0x56, 0xad, 0x3b, 0xc3, 0xb2, 0xd0, 0xbe, 0xaf, 0x45, 0x85, 0xbe,
  0x3f, 0x15, 0x45, 0x3e, 0x79, 0x07, 0xa0, 0xbe, 0x27, 0xc8, 0x21, 0xbd,
  0x92, 0xd2, 0xb5, 0x3e, 0x78, 0xfb, 0x51, 0xbe, 0xee, 0x48, 0xd8, 0xbd,
  0xcd, 0x15, 0xca, 0xbd, 0x39, 0xf5, 0xce, 0xbe, 0x89, 0x85, 0x00, 0xbf,
  0x51, 0xde, 0x04, 0x3e, 0xa7, 0xe5, 0x58, 0x3d, 0xcb, 0x4a, 0xaa, 0x3e,
  0x9d, 0xab, 0x4b, 0xbd, 0x1f, 0x32, 0x63, 0xbd, 0xc4, 0x4d, 0xf5, 0xbe,
  0x8e, 0x9f, 0x9e, 0xbe, 0x5d, 0xfe, 0x47, 0x3e, 0x18, 0x2b, 0x8d, 0x3a,
  0x80, 0xcf, 0xd8, 0x3c, 0xd2, 0x00, 0xdc, 0x3e, 0x6a, 0x35, 0x94, 0xbd,
  0x9a, 0xd9, 0x2b, 0x3e, 0x0a, 0x35, 0x04, 0x3e, 0xf4, 0x43, 0x1b, 0x3e,
  0x8c, 0xfe, 0x39, 0xbc, 0xde, 0xf2, 0x5c, 0x3e, 0xfa, 0xe1, 0xff, 0xff,
  0x10, 0x00, 0x00, 0x00, 0x06, 0x00, 0x00, 0x00, 0x14, 0x00, 0x00, 0x00,
  0x30, 0x00, 0x00, 0x00, 0x02, 0x00, 0x00, 0x00, 0x03, 0x00, 0x00, 0x00,
  0x10, 0x00, 0x00, 0x00, 0x19, 0x00, 0x00, 0x00, 0x73, 0x65, 0x71, 0x75,
  0x65, 0x6e, 0x74, 0x69, 0x61, 0x6c, 0x2f, 0x64, 0x65, 0x6e, 0x73, 0x65,
  0x5f, 0x31, 0x2f, 0x4d, 0x61, 0x74, 0x4d, 0x75, 0x6c, 0x00, 0x00, 0x00,
  0xec, 0xe1, 0xff, 0xff, 0xe2, 0xe2, 0xff, 0xff, 0x04, 0x00, 0x00, 0x00,
  0x00, 0x1c, 0x00, 0x00, 0x30, 0x90, 0x69, 0x3d, 0xd1, 0xcf, 0x49, 0xbe,
  0xbb, 0x67, 0x11, 0xbf, 0x3c, 0x22, 0x6d, 0x3b, 0x85, 0x6b, 0xe0, 0xbe,
  0x7e, 0x5d, 0xbf, 0xbe, 0x96, 0x14, 0x5e, 0xbd, 0xeb, 0xbd, 0x85, 0xbe,
  0x57, 0x9f, 0xf9, 0x3b, 0xcf, 0xa3, 0x42, 0x3e, 0x15, 0x30, 0xff, 0x3d,
  0x2c, 0xc0, 0x30, 0x3c, 0x10, 0xac, 0xae, 0xbe, 0xa5, 0xcd, 0x0f, 0xbf,
  0x7c, 0xd8, 0x1e, 0xbd, 0x17, 0xa1, 0x0e, 0x3e, 0x01, 0x71, 0x6a, 0xbe,
  0x1a, 0x22, 0x49, 0x3c, 0xbc, 0xc6, 0x06, 0xbf, 0x71, 0x34, 0x25, 0x3d,
  0x9e, 0x87, 0xa2, 0xbd, 0x3a, 0x03, 0xb3, 0xbd, 0x2f, 0x80, 0x04, 0x3d,
  0xcb, 0x99, 0xb7, 0xbe, 0x61, 0x1b, 0x21, 0xbe, 0x59, 0x9a, 0xd8, 0x3c,
  0x3d, 0x90, 0x06, 0xba, 0x54, 0x34, 0x47, 0x3d, 0xfe, 0xc1, 0x64, 0xbe,
  0x0c, 0xff, 0xe1, 0xbe, 0xe6, 0xf6, 0x3f, 0x3e, 0x22, 0x4d, 0x1d, 0x3e,
  0x5b, 0x57, 0xde, 0xbd, 0x9e, 0x0b, 0x2d, 0x3e, 0x23, 0xb7, 0x4a, 0xbc,
  0xf0, 0xf5, 0xe5, 0xbd, 0x0f, 0xe8, 0xb2, 0x3c, 0x77, 0xbc, 0x30, 0xbe,
  0xf8, 0x69, 0x0e, 0x3e, 0xd4, 0x6a, 0x7e, 0xbd, 0x09, 0xd2, 0x84, 0xbc,
  0x7d, 0xd0, 0xd4, 0x3d, 0x08, 0x35, 0xc9, 0x3c, 0x82, 0xb8, 0x44, 0x3e,
  0xd4, 0x75, 0x06, 0xbe, 0xb4, 0xfb, 0xad, 0xbe, 0x06, 0x10, 0xf0, 0x3d,
  0x65, 0xe3, 0xf4, 0x3d, 0x37, 0x10, 0x94, 0x3d, 0x9a, 0xde, 0x2d, 0xbd,
  0x74, 0xa9, 0xb0, 0xbd, 0x87, 0xd1, 0xfe, 0xbd, 0xf7, 0xba, 0x81, 0x3d,
  0x9a, 0x5e, 0x78, 0xbe, 0x01, 0x9e, 0x6e, 0x3e, 0xdd, 0xe2, 0xaa, 0x3d,
  0x2f, 0x79, 0x4d, 0xbe, 0x3c, 0xa5, 0xa8, 0x3d, 0x58, 0x3e, 0x60, 0x3e,
  0xeb, 0xa1, 0x44, 0x3e, 0x9e, 0xb2, 0xf0, 0xbd, 0xaf, 0xde, 0x88, 0xbe,
  0xcb, 0xb5, 0x6b, 0x3d, 0x5b, 0x65, 0xe3, 0x3d, 0x61, 0xcc, 0xd0, 0xbd,
  0x54, 0x84, 0xa5, 0x3e, 0x87, 0x4d, 0xa6, 0xbe, 0x5c, 0x60, 0xb4, 0xbc,
  0x73, 0x33, 0x80, 0xbd, 0xa7, 0xba, 0x61, 0x3d, 0xd9, 0x41, 0x69, 0x3e,
  0xb6, 0x58, 0xdc, 0xbd, 0xf6, 0x4a, 0x6f, 0xbe, 0xfa, 0x28, 0x98, 0x3b,
  0x23, 0xe5, 0x3e, 0x3e, 0x0f, 0x6a, 0xd0, 0xbc, 0x56, 0x33, 0xa5, 0x3d,
  0x62, 0x24, 0x1e, 0xbd, 0x72, 0xcb, 0x50, 0x3e, 0x22, 0x8c, 0x6a, 0x3a,
  0x86, 0x19, 0xa1, 0xbe, 0x29, 0x08, 0x31, 0x3e, 0x05, 0x0f, 0x91, 0xbe,
  0x26, 0xe5, 0xe0, 0x3b, 0x00, 0xa7, 0x59, 0xbc, 0x03, 0x7e, 0xb6, 0xbe,
  0x59, 0xe1, 0x09, 0x3d, 0x3e, 0xed, 0x8b, 0xbe, 0x8f, 0xe9, 0x80, 0xbd,
  0xd9, 0x4e, 0x8f, 0x3b, 0x83, 0x8c, 0x30, 0xbe, 0x22, 0x57, 0xe0, 0x3c,
  0xa0, 0x7b, 0x23, 0x3d, 0x9d, 0x36, 0x1f, 0xbe, 0xae, 0xb0, 0x49, 0xbe,
  0x0d, 0x6e, 0x9b, 0x3d, 0x31, 0x13, 0x54, 0xbe, 0xa5, 0x74, 0x65, 0xbe,
  0x0f, 0x9f, 0x21, 0xbe, 0x99, 0xd7, 0x19, 0xbe, 0xaf, 0xda, 0x26, 0xbe,
  0x26, 0x03, 0x68, 0x3d, 0x8c, 0xbd, 0x00, 0xbc, 0x71, 0xb0, 0xa2, 0xbe,
  0x4d, 0x3e, 0x5d, 0x3e, 0xd4, 0x03, 0x0a, 0x3d, 0x3e, 0xb8, 0x31, 0x3e,
  0xa3, 0x82, 0x59, 0x3c, 0x63, 0x3f, 0x7d, 0x3e, 0xbb, 0x54, 0x8f, 0xbe,
  0x1b, 0xbf, 0x66, 0xbc, 0x45, 0xbc, 0x1a, 0x3e, 0xe8, 0xbd, 0xad, 0x3c,
  0xf6, 0x4b, 0xe9, 0x3d, 0x73, 0x5b, 0xbb, 0x3d, 0x46, 0x79, 0x3a, 0xbe,
  0x0e, 0xfa, 0x28, 0x3e, 0xc7, 0x7d, 0x2c, 0xbe, 0x70, 0xe7, 0xe4, 0x3d,
  0xfe, 0x83, 0xcf, 0xbc, 0x3f, 0x9f, 0x49, 0xbe, 0xd4, 0xd4, 0x36, 0x3e,
  0x7e, 0xfa, 0x04, 0xbf, 0x3e, 0xef, 0x66, 0x3b, 0xc5, 0xb9, 0xbe, 0x3d,
  0xd9, 0x76, 0x18, 0x3e, 0xd6, 0x60, 0xbc, 0xbe, 0xf5, 0x7f, 0x9c, 0xbe,
  0x61, 0xe1, 0xdc, 0xbd, 0xf7, 0x1c, 0xd3, 0x3e, 0x1c, 0x8e, 0x1d, 0xbd,
  0x79, 0x95, 0x78, 0x3e, 0x0d, 0x64, 0x61, 0x3e, 0x18, 0x21, 0xdb, 0xbd,
  0x59, 0x72, 0x63, 0x3e, 0xdd, 0x43, 0xc5, 0xbe, 0x7f, 0xa7, 0x8c, 0xbe,
  0xb3, 0x84, 0x9b, 0xbe, 0xbc, 0xe9, 0x4c, 0x3e, 0xe9, 0x11, 0x5d, 0x3e,
  0x38, 0xcb, 0xf5, 0xbd, 0x1d, 0x5d, 0x18, 0xbe, 0x1d, 0xf1, 0x82, 0x3e,
  0x1c, 0xe4, 0x4e, 0x3e, 0xe3, 0xc6, 0xb0, 0x3d, 0x01, 0xa2, 0x44, 0x3f,
  0xbf, 0xed, 0x43, 0x3e, 0xeb, 0x30, 0x89, 0x3d, 0x4c, 0x16, 0xbb, 0x3e,
  0x89, 0xa8, 0xf0, 0x3d, 0xc5, 0x25, 0xf1, 0xbc, 0x5f, 0x3a, 0xda, 0xbe,
  0xb3, 0xa5, 0xbf, 0xbe, 0xe9, 0xc5, 0x01, 0xbe, 0x91, 0x10, 0x5f, 0x3e,
  0x8d, 0x01, 0x1b, 0x3f, 0x7f, 0x2a, 0x5f, 0xbe, 0xc8, 0x5c, 0x0c, 0xbe,
  0xeb, 0xbd, 0xa2, 0xbd, 0x73, 0x34, 0xaa, 0x3d, 0xed, 0xe6, 0x66, 0x3e,
  0x5d, 0x7d, 0x1f, 0x3f, 0xea, 0x63, 0x23, 0x3f, 0x72, 0xd9, 0x59, 0x3e,
  0xe0, 0x7f, 0xeb, 0x3e, 0xf7, 0xab, 0x5a, 0x3e, 0x8d, 0x8a, 0x91, 0x3e,
  0x33, 0x16, 0xf4, 0xba, 0x55, 0xf7, 0x84, 0xbe, 0xe4, 0xcc, 0x79, 0xbd,
  0xae, 0xca, 0xb2, 0x3e, 0x75, 0xcb, 0x04, 0x3f, 0xb9, 0x48, 0x27, 0xbe,
  0xc0, 0xd9, 0x13, 0x3d, 0x0d, 0xac, 0xc1, 0x3d, 0x8c, 0x64, 0x5d, 0xbd,
  0x74, 0x65, 0x02, 0x3f, 0x79, 0x71, 0x2e, 0x3f, 0x95, 0x7e, 0x9d, 0x3e,
  0x39, 0x21, 0x1b, 0x3d, 0x7f, 0x34, 0xfd, 0x3d, 0x8e, 0xdd, 0x0c, 0xbe,
  0x5b, 0x2b, 0x95, 0x3e, 0x69, 0xfa, 0xb6, 0xbe, 0xdc, 0x7a, 0x83, 0xbe,
  0xef, 0xc6, 0x16, 0xbe, 0x92, 0x94, 0x05, 0xbe, 0x49, 0xdc, 0xb4, 0x3e,
  0xe3, 0x93, 0x80, 0xbd, 0xf0, 0x9d, 0x64, 0xbd, 0xf8, 0x89, 0x3a, 0xbd,
  0x93, 0x01, 0x05, 0x3d, 0x56, 0x30, 0x36, 0xbd, 0xdc, 0xd3, 0xef, 0x3e,
  0x3e, 0x93, 0xe9, 0x3d, 0x52, 0x43, 0x9e, 0x3e, 0x1c, 0x0e, 0x6d, 0x3e,
  0x8b, 0xe6, 0x13, 0xbd, 0x61, 0x82, 0x8d, 0x3e, 0xd3, 0xad, 0x10, 0xbf,
  0x89, 0x14, 0x69, 0xbe, 0xff, 0x20, 0xfb, 0xbe, 0x6c, 0x55, 0xc4, 0x3e,
  0x34, 0x6d, 0x12, 0x3f, 0xdd, 0xe5, 0x1c, 0xbe, 0x07, 0x01, 0x0d, 0x3d,
  0xcd, 0xb8, 0x0b, 0xbe, 0xa7, 0xbc, 0xfb, 0xbd, 0x73, 0x20, 0xd1, 0xbd,
  0xee, 0x0b, 0x83, 0x3e, 0x91, 0x47, 0x28, 0x3d, 0x43, 0x2a, 0x79, 0x3c,
  0x4e, 0xca, 0x8d, 0xbd, 0xfc, 0xc0, 0x46, 0xbd, 0x48, 0x9b, 0x34, 0xbe,
  0xab, 0xac, 0xfd, 0xbd, 0x1b, 0x9d, 0x16, 0x3e, 0x21, 0x25, 0xa7, 0xbe,
  0x29, 0xdc, 0x56, 0x3d, 0xae, 0x3c, 0xf5, 0x3e, 0xfd, 0x4e, 0x4c, 0x3e,
  0xf6, 0x4e, 0x20, 0xbe, 0x60, 0xe5, 0x7e, 0xbc, 0x84, 0xba, 0x14, 0xbd,
  0xda, 0xf8, 0xad, 0xba, 0x89, 0x1e, 0x73, 0xbe, 0x00, 0x13, 0xd9, 0x3c,
  0xb4, 0xce, 0xad, 0xbc, 0xad, 0x38, 0x41, 0xbe, 0xa0, 0x96, 0x72, 0xbe,
  0xd8, 0xe4, 0x4f, 0xbe, 0x8b, 0xe5, 0x84, 0xbd, 0xda, 0x32, 0x73, 0xbd,
  0x47, 0x84, 0x4a, 0x3d, 0xa1, 0x7a, 0x7f, 0xbe, 0x6e, 0xbd, 0xef, 0xbd,
  0x77, 0x36, 0x2d, 0xbe, 0x49, 0xbe, 0x38, 0xbe, 0x57, 0x74, 0x95, 0x3c,
  0xaa, 0xc0, 0xef, 0xbc, 0x94, 0xf9, 0x0d, 0x3b, 0xb0, 0xaf, 0xa6, 0xbe,
  0x06, 0x7c, 0x37, 0xbe, 0x71, 0xec, 0x8e, 0xbb, 0xb4, 0xcc, 0x41, 0xbe,
  0x85, 0xf0, 0x4e, 0x3d, 0x25, 0xcd, 0x23, 0xbd, 0x96, 0xff, 0x1e, 0xbd,
  0x0a, 0x2c, 0x7c, 0xbd, 0xa1, 0xba, 0xa8, 0xbd, 0x0b, 0x92, 0x0e, 0x3c,
  0x3c, 0xdd, 0x17, 0xbe, 0x62, 0x81, 0xb6, 0xbd, 0x81, 0x48, 0x9b, 0xbd,
  0x35, 0x18, 0xa1, 0x3c, 0x38, 0x3c, 0xad, 0x3c, 0xab, 0x35, 0x19, 0xbd,
  0x87, 0xec, 0x6d, 0xbe, 0x16, 0xac, 0x00, 0x3e, 0x7c, 0x05, 0xef, 0x3d,
  0xd3, 0x37, 0x02, 0xbe, 0xb4, 0xbb, 0x98, 0x3d, 0x45, 0x14, 0x0b, 0x3e,
  0x66, 0x43, 0x8a, 0xbd, 0x1d, 0xe2, 0x85, 0xbd, 0x74, 0x5e, 0xaa, 0xbd,
  0xe7, 0x0d, 0x88, 0xbe, 0x90, 0x20, 0xbd, 0x3d, 0x6d, 0x8f, 0xd3, 0xbd,
  0x1c, 0x60, 0x23, 0xbd, 0x59, 0x42, 0x1f, 0xbe, 0x06, 0xd3, 0x17, 0x3c,
  0x78, 0xa9, 0x86, 0xbe, 0x07, 0xbd, 0xab, 0x3d, 0x50, 0xbc, 0x25, 0xbe,
  0x94, 0xfb, 0x5d, 0xbe, 0x2a, 0xc4, 0xa8, 0x3d, 0x2e, 0x68, 0x9c, 0x3d,
  0x14, 0x98, 0xd3, 0xbd, 0x9a, 0x6f, 0xf4, 0xbc, 0x83, 0x87, 0x86, 0xbe,
  0xb6, 0xeb, 0xf0, 0xbd, 0x8c, 0x28, 0x43, 0xbe, 0xb2, 0x84, 0xd4, 0x3d,
  0x98, 0x5b, 0x80, 0x3b, 0x95, 0xce, 0xc5, 0x3d, 0x48, 0xc1, 0x2a, 0x3c,
  0xe4, 0xfa, 0x9a, 0x3d, 0x7c, 0x1a, 0x4c, 0xbe, 0xb7, 0xc9, 0x80, 0xbe,
  0xc4, 0xaa, 0x25, 0x3a, 0x84, 0xbd, 0x4a, 0x3d, 0x3b, 0xce, 0xa1, 0x3e,
  0xad, 0x96, 0xb2, 0x3d, 0x43, 0xa3, 0x95, 0x3e, 0x59, 0x72, 0xb9, 0x3b,
  0xdc, 0x97, 0x83, 0xbd, 0x25, 0xfc, 0xda, 0xbd, 0x49, 0x24, 0xd6, 0x3d,
  0xe3, 0xab, 0xeb, 0xbd, 0x28, 0xd6, 0x6b, 0xbe, 0x2b, 0x45, 0xe1, 0xbd,
  0xfe, 0x18, 0xc6, 0x3d, 0xfa, 0x30, 0xc7, 0xbd, 0xf6, 0x6a, 0xa9, 0x3d,
  0xd6, 0xe8, 0xfb, 0xbc, 0x90, 0xbc, 0x78, 0x3d, 0x1f, 0x99, 0xc7, 0xbd,
  0x6e, 0xd4, 0xaa, 0xbc, 0x59, 0x37, 0x09, 0x3e, 0x0f, 0x35, 0xf2, 0xbd,
  0x7b, 0x18, 0x64, 0x3e, 0x9e, 0xaa, 0x01, 0xbe, 0xb1, 0x63, 0xec, 0xbd,
  0x96, 0xac, 0xb4, 0x3d, 0x17, 0x3d, 0x33, 0xbe, 0x94, 0xe9, 0x86, 0xbc,
  0x46, 0x68, 0xb7, 0xbd, 0x14, 0xdc, 0x36, 0xbe, 0xe3, 0x2b, 0x39, 0xbe,
  0xd1, 0x82, 0x35, 0x3d, 0xc6, 0x21, 0x1c, 0xbc, 0x0a, 0xa4, 0x67, 0xbe,
  0xd8, 0xba, 0x43, 0xbe, 0xd6, 0x07, 0xbe, 0xbd, 0x3a, 0x30, 0x8d, 0xbe,
  0x80, 0xd2, 0x26, 0xbe, 0x2a, 0x0c, 0xa1, 0x3e, 0x8d, 0x1e, 0xe6, 0xbd,
  0x52, 0x91, 0x39, 0xbd, 0x6d, 0xe4, 0x39, 0xbd, 0x3d, 0x3e, 0xbb, 0x3c,
  0x1e, 0x69, 0x6b, 0x3d, 0x62, 0xe1, 0x15, 0x3d, 0x0a, 0xaf, 0x3d, 0xbe,
  0xce, 0x6a, 0x06, 0xbe, 0x6d, 0x35, 0x08, 0xbd, 0x49, 0x75, 0xb9, 0x3d,
  0xfc, 0x5d, 0xd1, 0xbe, 0x00, 0x7a, 0xa3, 0xbe, 0x41, 0xb8, 0x0b, 0xbe,
  0x9e, 0xb6, 0xb3, 0xbe, 0x7b, 0xbd, 0x1a, 0xbe, 0x1d, 0xef, 0x26, 0xbd,
  0x02, 0x97, 0x2e, 0x3e, 0xc8, 0xb6, 0x12, 0xbe, 0xb6, 0x0d, 0xa8, 0x3a,
  0x35, 0x9a, 0x89, 0x3d, 0x93, 0x2d, 0xda, 0x3d, 0xe5, 0x49, 0x0f, 0x3c,
  0x28, 0x28, 0x90, 0xbe, 0x77, 0xd4, 0x92, 0xbe, 0xac, 0xe9, 0x28, 0xbf,
  0x45, 0x8a, 0x7c, 0xbf, 0x61, 0xaa, 0x1a, 0xbf, 0x7c, 0xa3, 0x1d, 0xbe,
  0xa7, 0x97, 0xd6, 0xbe, 0x31, 0x53, 0x53, 0xbe, 0xf5, 0x88, 0xa6, 0xbe,
  0x7b, 0x08, 0xdc, 0xbe, 0x88, 0x2d, 0x3d, 0xbc, 0x26, 0x3f, 0x22, 0xbe,
  0xa6, 0x87, 0xbb, 0xbd, 0xef, 0xea, 0x85, 0xbe, 0x71, 0x8e, 0x17, 0x3e,
  0x26, 0xcf, 0x58, 0x3d, 0x48, 0xd0, 0x13, 0xbd, 0x6b, 0x29, 0xec, 0x3b,
  0xc8, 0x8d, 0x75, 0x3e, 0x85, 0xbe, 0x83, 0xbf, 0x4c, 0xea, 0x04, 0xbe,
  0x20, 0xa6, 0x01, 0xbc, 0xad, 0x44, 0x92, 0xbe, 0x4b, 0xba, 0xb6, 0x3d,
  0x33, 0xa2, 0x27, 0xbe, 0x9b, 0x04, 0x3b, 0xbd, 0x75, 0x4d, 0x87, 0xbb,
  0xca, 0x24, 0x19, 0xbe, 0x08, 0xa0, 0x13, 0x3c, 0xaa, 0x2b, 0x12, 0xbe,
  0x93, 0xcd, 0x4c, 0x3d, 0x50, 0x78, 0x77, 0xba, 0x12, 0xc1, 0x65, 0xbd,
  0xa0, 0x7b, 0x17, 0xbe, 0xa5, 0x6f, 0x16, 0x3d, 0x57, 0x4b, 0x18, 0xbf,
  0x8e, 0xa2, 0x48, 0x3d, 0x6c, 0x29, 0x21, 0x3d, 0xc7, 0xa5, 0xe9, 0xbd,
  0x37, 0xc4, 0x7b, 0x3e, 0x78, 0xec, 0x3f, 0xbe, 0x72, 0x3b, 0x86, 0xbd,
  0xde, 0xcd, 0xd3, 0xbc, 0x0c, 0x63, 0xb8, 0xbe, 0x82, 0x2b, 0xf5, 0xbd,
  0x3e, 0x36, 0x04, 0x3e, 0x0f, 0x09, 0xaf, 0xbd, 0xe8, 0x59, 0x5f, 0xbe,
  0x8a, 0xb2, 0x07, 0x3e, 0xb5, 0xf1, 0x6c, 0xbd, 0x62, 0x48, 0x98, 0xbd,
  0x4c, 0xcd, 0x70, 0xbf, 0x16, 0x63, 0x6d, 0x3d, 0xcc, 0xa8, 0x69, 0x3e,
  0xff, 0xcf, 0x72, 0xbe, 0x99, 0x59, 0x93, 0x3e, 0xc0, 0xfa, 0x0c, 0xbf,
  0x51, 0x6c, 0x33, 0x3e, 0xa3, 0x59, 0x8b, 0xbd, 0x11, 0x74, 0x40, 0xbe,
  0x64, 0x4b, 0x49, 0x3d, 0x80, 0x6f, 0x8a, 0xbe, 0xa3, 0x38, 0xbe, 0xbd,
  0xa4, 0x7a, 0x80, 0xbc, 0x9f, 0x34, 0x71, 0x3e, 0xf7, 0xb0, 0xa2, 0xbd,
  0xd1, 0xf5, 0x41, 0x3d, 0x71, 0x90, 0xa5, 0xbe, 0xf6, 0xb3, 0x13, 0x3e,
  0x87, 0x94, 0x26, 0xbe, 0x54, 0x57, 0x20, 0xbe, 0x20, 0x6f, 0x80, 0x3e,
  0x20, 0x18, 0x89, 0xbe, 0xcc, 0x10, 0xdb, 0x3d, 0x5b, 0xb2, 0x8e, 0xbd,
  0x0d, 0x41, 0x8f, 0xbc, 0x0f, 0x46, 0x55, 0xbe, 0x30, 0x7d, 0xad, 0xbe,
  0x32, 0xf1, 0x57, 0xbd, 0xac, 0x7c, 0xc3, 0xbd, 0xb7, 0x26, 0x04, 0x3e,
  0xf6, 0xd5, 0xc2, 0xbe, 0x48, 0x68, 0x2c, 0x3c, 0xcc, 0x22, 0x19, 0x3d,
  0xb8, 0x36, 0xb0, 0x3d, 0x82, 0x49, 0xb2, 0xbd, 0xe8, 0xce, 0x2c, 0x3e,
  0x60, 0x42, 0x30, 0x3d, 0xb5, 0xbb, 0x4a, 0xbd, 0xed, 0xde, 0xaa, 0x3d,
  0x4d, 0xae, 0x11, 0xbf, 0xc2, 0x39, 0x09, 0x3e, 0x4b, 0xe2, 0x65, 0xbe,
  0x20, 0x05, 0xbf, 0xbe, 0x44, 0x71, 0xb9, 0xbe, 0x0e, 0xd6, 0xd2, 0xbd,
  0x7c, 0x34, 0xad, 0x3d, 0x87, 0xa2, 0x86, 0xbe, 0x4a, 0xa4, 0x01, 0xbe,
  0x67, 0x60, 0x30, 0xbf, 0xe1, 0x72, 0x4c, 0x3e, 0x3d, 0x3d, 0x08, 0xbe,
  0x36, 0xb5, 0x9d, 0x3e, 0xd9, 0x8f, 0xa4, 0x3e, 0x85, 0x4b, 0x87, 0xbe,
  0x4a, 0x4a, 0x0e, 0xbe, 0x35, 0xb6, 0xfe, 0xbe, 0x10, 0x36, 0x9a, 0xbd,
  0x5e, 0xcd, 0x9f, 0x3c, 0x98, 0x32, 0xf0, 0xbe, 0xf5, 0x50, 0xf7, 0xbe,
  0xde, 0xe8, 0x63, 0xbd, 0xf4, 0xf3, 0x58, 0x3d, 0x20, 0x18, 0x86, 0xbd,
  0xd9, 0x78, 0x60, 0x3e, 0x70, 0x12, 0x7a, 0xbe, 0x79, 0x02, 0x4f, 0x3e,
  0x97, 0xc5, 0x7a, 0xbe, 0x23, 0x82, 0x3f, 0x3e, 0x47, 0x27, 0xa7, 0x3e,
  0x7c, 0x18, 0x8b, 0xbd, 0x3a, 0x97, 0x4a, 0x3e, 0x0d, 0xed, 0xd0, 0x3e,
  0x3c, 0xb5, 0xda, 0x3c, 0xef, 0x05, 0xe7, 0xbd, 0x07, 0x20, 0xad, 0xbe,
  0xb8, 0x69, 0xa9, 0xbd, 0xaa, 0xaa, 0x4c, 0xbd, 0x3b, 0x00, 0x87, 0xbe,
  0x68, 0x35, 0xec, 0xbd, 0xb1, 0xc1, 0x3c, 0xbb, 0x14, 0xfa, 0x69, 0xbf,
  0x3b, 0x0d, 0x20, 0x3e, 0x9e, 0xa3, 0x89, 0xbc, 0x16, 0x24, 0x51, 0xbd,
  0x62, 0x49, 0x2e, 0x3d, 0x1e, 0xa4, 0x7b, 0xbe, 0x87, 0xc6, 0x75, 0x3e,
  0x63, 0x04, 0x10, 0x3e, 0xb5, 0x6c, 0x80, 0xbc, 0x9e, 0x15, 0x93, 0xbe,
  0x88, 0x8c, 0x29, 0xbf, 0x38, 0x01, 0x4b, 0x3d, 0x58, 0xa8, 0xd1, 0xbd,
  0x88, 0x42, 0xc6, 0xbd, 0xc0, 0x6c, 0xc0, 0xbd, 0x3e, 0xdc, 0x4b, 0x3d,
  0x81, 0x6c, 0xce, 0xbe, 0xff, 0xf4, 0x21, 0xbf, 0x4b, 0x42, 0x47, 0xbe,
  0x77, 0xcc, 0xbd, 0xbe, 0x6f, 0x56, 0x1a, 0xbf, 0xc5, 0x47, 0x7b, 0xbb,
  0xd8, 0x9f, 0x35, 0x3e, 0x9d, 0x65, 0x63, 0x3e, 0xc1, 0x6d, 0x9e, 0xbd,
  0xa0, 0x02, 0x12, 0xbf, 0xc9, 0x76, 0x70, 0xbf, 0x20, 0xac, 0x1b, 0x3e,
  0xbb, 0x77, 0xd7, 0xbd, 0x63, 0x5a, 0x52, 0xbe, 0xde, 0xc6, 0x76, 0xbd,
  0xd7, 0x86, 0xa4, 0xbe, 0xe7, 0xc7, 0x54, 0xbe, 0xb3, 0x4e, 0x1c, 0xbe,
  0xcb, 0x0d, 0x0e, 0xbe, 0xbf, 0xb2, 0x5a, 0x3c, 0x7d, 0x49, 0xcc, 0x3d,
  0xb3, 0x81, 0x44, 0xbd, 0x71, 0x59, 0x92, 0x3c, 0x67, 0x9d, 0x0e, 0xbd,
  0x40, 0xca, 0x90, 0xbc, 0x33, 0xb8, 0x0d, 0xbe, 0xac, 0xda, 0xbe, 0xbe,
  0x38, 0x86, 0x95, 0x3c, 0xcd, 0xc7, 0xd8, 0xbd, 0xae, 0x03, 0xe6, 0x3d,
  0x5b, 0x7f, 0xc6, 0x3c, 0xe2, 0x6a, 0x12, 0xbd, 0x8e, 0xe3, 0xf8, 0xbe,
  0x30, 0x8b, 0x91, 0xbd, 0x05, 0x60, 0x4e, 0xbe, 0x9e, 0xb0, 0x05, 0x3e,
  0x02, 0x65, 0x28, 0x3e, 0xae, 0x04, 0x65, 0x3d, 0xc7, 0xe4, 0x73, 0x3e,
  0x8b, 0xa9, 0x22, 0xba, 0xa7, 0x58, 0x32, 0xbd, 0x08, 0x8e, 0x01, 0xbe,
  0xa4, 0x62, 0x23, 0xbf, 0x8f, 0x96, 0xa9, 0xbd, 0x75, 0x97, 0xba, 0xbd,
  0xe0, 0x4d, 0xa0, 0x3d, 0xfd, 0x1a, 0x39, 0xbe, 0x85, 0x84, 0x15, 0x3e,
  0xc6, 0x18, 0x8d, 0x3d, 0x8a, 0xe2, 0xde, 0x3d, 0xf3, 0xeb, 0x67, 0xbe,
  0xa0, 0x91, 0xf5, 0x3d, 0x00, 0x14, 0xf7, 0xbc, 0xd2, 0xac, 0xb0, 0xbc,
  0xef, 0x83, 0x36, 0x3e, 0xaa, 0xa9, 0x2e, 0xbf, 0xf1, 0x02, 0x4e, 0x3e,
  0x25, 0xf0, 0x24, 0xbe, 0xee, 0x1f, 0x2a, 0xbf, 0x4b, 0xb8, 0xce, 0xbd,
  0xc2, 0x1c, 0x70, 0xbd, 0x8d, 0x4b, 0x6d, 0x3d, 0x04, 0x87, 0x88, 0xbe,
  0xa0, 0x27, 0x31, 0xbe, 0xec, 0x65, 0x75, 0xbe, 0x9a, 0xda, 0x1d, 0x3d,
  0x98, 0x1d, 0x92, 0x3b, 0xfd, 0xf7, 0x18, 0x3e, 0x2e, 0x90, 0x30, 0x3e,
  0x59, 0xd6, 0x1e, 0xbe, 0x7e, 0xe6, 0x00, 0xbe, 0x0e, 0x6d, 0x18, 0x3d,
  0x86, 0xe5, 0x26, 0xbe, 0xd3, 0x33, 0x85, 0xbe, 0x56, 0x14, 0x93, 0x3d,
  0x33, 0x4c, 0xb8, 0xbe, 0x35, 0x69, 0xcd, 0xbd, 0x5d, 0x47, 0x4e, 0x3e,
  0x47, 0xba, 0xe7, 0xbc, 0xf9, 0x92, 0x2c, 0x3e, 0x6a, 0x99, 0xd5, 0xbe,
  0x71, 0xe5, 0xa6, 0x3d, 0x17, 0xb3, 0x18, 0xbe, 0x3f, 0xa0, 0x5a, 0x3e,
  0xa8, 0xd5, 0x48, 0x3e, 0x04, 0x82, 0x8e, 0xbe, 0x21, 0x22, 0xec, 0x3e,
  0x04, 0xcc, 0x89, 0x3d, 0xfe, 0xc0, 0x0d, 0x3c, 0x15, 0xfd, 0x8d, 0xbd,
  0x1b, 0xb5, 0x16, 0xbe, 0x2e, 0x47, 0x65, 0x3c, 0x1a, 0xe7, 0x88, 0xbd,
  0xa2, 0xd6, 0xf5, 0xbc, 0x96, 0x42, 0x8c, 0xbd, 0x69, 0x7a, 0xd9, 0x3d,
  0xc0, 0x4c, 0x9b, 0xbe, 0x84, 0x9a, 0x15, 0x3e, 0xb9, 0x97, 0xe0, 0xbd,
  0x04, 0xd9, 0x71, 0xbe, 0x85, 0x2e, 0x4c, 0xbe, 0x79, 0xfa, 0x6d, 0xbd,
  0x83, 0x43, 0xa3, 0x3e, 0xe6, 0xb0, 0xc8, 0x3d, 0x64, 0x48, 0x6b, 0xbc,
  0xaf, 0xb6, 0x5f, 0xbd, 0x7d, 0x96, 0x19, 0xbe, 0x13, 0xb9, 0x06, 0x3e,
  0xd0, 0xe6, 0x82, 0xbd, 0x7d, 0xa6, 0x9f, 0x3c, 0xa8, 0x24, 0xae, 0xbd,
  0xfd, 0x00, 0xd2, 0x3c, 0xf1, 0x0b, 0x17, 0x3b, 0x7c, 0xb0, 0x76, 0xbe,
  0x9f, 0x39, 0x55, 0xbe, 0xce, 0xe0, 0x05, 0xbd, 0xf8, 0xca, 0x01, 0xbd,
  0xde, 0x8a, 0x86, 0xbe, 0x46, 0x02, 0x63, 0x3e, 0x7a, 0x50, 0xf6, 0x3d,
  0x7a, 0x3b, 0x53, 0x39, 0x4d, 0x00, 0x1f, 0xbe, 0xc7, 0xd4, 0x60, 0xbe,
  0x0d, 0x75, 0x96, 0x3d, 0xc1, 0x0c, 0xb7, 0xbd, 0x4b, 0xed, 0xb2, 0xbd,
  0x57, 0xd8, 0x4d, 0xbe, 0x8c, 0xe8, 0x60, 0x3e, 0x58, 0x36, 0x93, 0xbd,
  0xa7, 0xa0, 0xe0, 0xbd, 0x45, 0x1b, 0x8e, 0xbd, 0xfb, 0xe2, 0x85, 0x3e,
  0x83, 0x73, 0x18, 0x3e, 0xdd, 0x90, 0xc6, 0xbc, 0x71, 0xe3, 0x85, 0x3d,
  0xd7, 0x3c, 0x38, 0xbe, 0x29, 0xc0, 0x7a, 0xbd, 0xc6, 0xf4, 0xe4, 0x3d,
  0x6a, 0x98, 0xd7, 0x3d, 0xb9, 0x0d, 0x02, 0xbe, 0x44, 0x82, 0x4e, 0xbe,
  0x95, 0x78, 0x22, 0x3e, 0x22, 0xdf, 0x97, 0x3d, 0x67, 0xbb, 0x76, 0x3e,
  0x37, 0xea, 0x66, 0xbe, 0x1e, 0xf0, 0x47, 0x3e, 0x43, 0x9c, 0x7a, 0xbe,
  0x79, 0x0c, 0x52, 0x3e, 0x7c, 0xb4, 0xe6, 0xbd, 0x49, 0x4f, 0x17, 0xbe,
  0x3e, 0x6c, 0x68, 0x3e, 0x92, 0x44, 0x28, 0x3d, 0xe8, 0x48, 0xa4, 0x3d,
  0xff, 0xd3, 0x76, 0xbb, 0xc9, 0x9f, 0x2c, 0xbe, 0x94, 0xab, 0xa2, 0x3d,
  0xba, 0xf1, 0x18, 0x3c, 0x1d, 0x6f, 0xcc, 0xbd, 0x79, 0xaa, 0x8f, 0xbd,
  0xd4, 0x8c, 0x5a, 0x3e, 0xc9, 0xde, 0x5c, 0xbd, 0x23, 0xbf, 0x95, 0xbd,
  0xfb, 0x7b, 0x13, 0xbd, 0xf8, 0x5f, 0xbe, 0x3d, 0x94, 0xbc, 0x47, 0xbd,
  0x56, 0x92, 0xc0, 0x3c, 0x3c, 0x14, 0xb5, 0x3e, 0xb2, 0x33, 0x8f, 0xbe,
  0x67, 0x47, 0xfb, 0x3c, 0xdd, 0x8e, 0x5e, 0xbd, 0x93, 0xea, 0xeb, 0xbd,
  0xd4, 0x77, 0x35, 0xbb, 0x1b, 0xc7, 0x5e, 0xbe, 0x26, 0x3c, 0x00, 0xbd,
  0x31, 0x48, 0x7f, 0xbe, 0x0d, 0x16, 0x34, 0xbd, 0xc9, 0x5e, 0x3d, 0x3e,
  0x36, 0xa0, 0xc3, 0x3d, 0xb1, 0x00, 0xb5, 0xbd, 0xc7, 0x29, 0x3e, 0x3d,
  0xf3, 0x5a, 0x1a, 0xbe, 0xe3, 0xf0, 0x58, 0x3e, 0x5e, 0x72, 0x2e, 0xbd,
  0x81, 0x47, 0xb0, 0xbd, 0x31, 0xb0, 0x54, 0x3e, 0xc6, 0x77, 0x6e, 0xbe,
  0x14, 0xa3, 0x03, 0x3e, 0x72, 0x1a, 0x06, 0x3e, 0xc2, 0x7c, 0xee, 0x3d,
  0x6a, 0x61, 0x9e, 0xbe, 0x4f, 0x21, 0x3d, 0xbe, 0x9e, 0xcb, 0x06, 0x3d,
  0x8c, 0x14, 0x60, 0x3e, 0x3a, 0x13, 0x05, 0xbe, 0x94, 0xb0, 0x0e, 0x3e,
  0x69, 0x9c, 0x85, 0x3c, 0x0d, 0x63, 0xfe, 0xbe, 0x3f, 0xd4, 0x6b, 0x3e,
  0x2b, 0xf1, 0x94, 0xbe, 0x3d, 0xc8, 0xa3, 0xbe, 0x3f, 0x24, 0x0f, 0xbe,
  0x97, 0xb4, 0x43, 0x3e, 0xc8, 0x4e, 0x58, 0x3e, 0x11, 0xf5, 0x6f, 0xbe,
  0x61, 0x99, 0xf1, 0xbd, 0x65, 0xc1, 0x51, 0x3e, 0x2a, 0xf2, 0x04, 0x3e,
  0xf9, 0x75, 0x36, 0x3e, 0x04, 0x5c, 0x0c, 0x3f, 0x84, 0x46, 0xb8, 0x3e,
  0x52, 0xa5, 0x8c, 0x3c, 0x75, 0x0f, 0x63, 0x3e, 0x3a, 0x11, 0xbb, 0x3d,
  0x71, 0xee, 0x3e, 0xbe, 0xe6, 0x94, 0x59, 0xbe, 0xef, 0x30, 0x9a, 0xbd,
  0x5f, 0xfb, 0xc8, 0xbd, 0x32, 0x31, 0x99, 0x3e, 0x54, 0xec, 0x2b, 0x3f,
  0x36, 0x89, 0x14, 0xbe, 0x02, 0x47, 0xd3, 0xbd, 0x4c, 0x43, 0x89, 0xbc,
  0x3d, 0xc5, 0x4b, 0xbd, 0xd0, 0x75, 0xe7, 0x3d, 0x06, 0x01, 0x58, 0x3f,
  0xc9, 0x92, 0x0d, 0x3f, 0x8a, 0x4f, 0x7d, 0x3e, 0x64, 0x72, 0xd3, 0x3e,
  0x81, 0x4a, 0x2f, 0x3e, 0x4b, 0x43, 0x14, 0x3e, 0xa5, 0x10, 0x47, 0x3d,
  0xeb, 0x03, 0xa1, 0xbe, 0xbf, 0xf9, 0x50, 0x3d, 0x6e, 0xb4, 0x92, 0x3e,
  0xf7, 0xb7, 0xcd, 0x3e, 0xb4, 0x08, 0xf2, 0xbd, 0xd2, 0xef, 0xb7, 0x3d,
  0xeb, 0xc2, 0x66, 0x3c, 0x03, 0x77, 0x2d, 0xbe, 0x44, 0xe3, 0xf0, 0x3e,
  0x2d, 0x76, 0x37, 0x3f, 0x04, 0x4e, 0xae, 0x3e, 0x69, 0x16, 0x99, 0xbc,
  0x83, 0xf3, 0x07, 0x3e, 0x85, 0x93, 0x33, 0xbe, 0xaf, 0x3d, 0x45, 0x3e,
  0x37, 0xf4, 0x33, 0xbd, 0xc4, 0x3a, 0x6a, 0xbe, 0x2a, 0x30, 0x1e, 0x3d,
  0x7e, 0x76, 0x84, 0xbe, 0x28, 0xf0, 0x30, 0x3f, 0xf2, 0xe8, 0x12, 0xbe,
  0x59, 0xc2, 0xe4, 0xbc, 0xe9, 0x9b, 0x8b, 0xbe, 0xa2, 0x72, 0x38, 0x3d,
  0xc4, 0x10, 0x7c, 0x3d, 0x12, 0xdb, 0x22, 0x3f, 0x53, 0x76, 0x06, 0x3d,
  0xa3, 0xf5, 0x4e, 0x3e, 0x0a, 0x8c, 0xaf, 0x3d, 0xfe, 0x26, 0x06, 0xbe,
  0xc6, 0xd4, 0xa7, 0x3d, 0x8b, 0xbc, 0xca, 0xbe, 0xfe, 0x37, 0x9c, 0xbe,
  0xaf, 0x0c, 0x6f, 0xbe, 0x06, 0x86, 0x6c, 0x3e, 0x8b, 0x8d, 0xa3, 0x3e,
  0x4b, 0x58, 0x8b, 0xbd, 0xf3, 0xe1, 0x9d, 0x3d, 0x52, 0xde, 0x69, 0xbe,
  0xf4, 0xa4, 0x2a, 0x3d, 0x73, 0xd9, 0xaa, 0xbd, 0x9b, 0xdb, 0x79, 0x3e,
  0xaa, 0x54, 0x10, 0x3d, 0x9c, 0xd5, 0x00, 0x3e, 0x13, 0x2a, 0x21, 0xbd,
  0x9c, 0x23, 0xc1, 0xbd, 0x2f, 0x9d, 0xec, 0xbd, 0xd1, 0x73, 0x18, 0xbe,
  0xec, 0x79, 0xd0, 0x3e, 0x59, 0xc2, 0x36, 0xbe, 0x5c, 0xe5, 0x98, 0xba,
  0x51, 0x2f, 0xa9, 0x3e, 0x28, 0x1e, 0x28, 0x3e, 0xab, 0xdb, 0xa9, 0xbd,
  0x7e, 0xcb, 0x00, 0xbe, 0x0a, 0xf0, 0x9b, 0x3d, 0xf8, 0xa4, 0x64, 0xbe,
  0x53, 0xaf, 0xf8, 0xbd, 0x78, 0x1d, 0x23, 0x3d, 0x60, 0xcc, 0xb4, 0xbe,
  0x95, 0xac, 0x71, 0x3d, 0x43, 0xac, 0x26, 0xbd, 0x7c, 0x89, 0xd1, 0xbd,
  0x55, 0x43, 0x06, 0xbe, 0x9a, 0x28, 0x52, 0x3d, 0x9c, 0xa2, 0x88, 0xbd,
  0xac, 0x09, 0xae, 0x3e, 0x26, 0x0a, 0xa7, 0x3d, 0xe1, 0x56, 0xb0, 0x3d,
  0xf5, 0xfb, 0x7f, 0xbe, 0x38, 0x6a, 0x81, 0xbe, 0xf3, 0xcb, 0x03, 0xbe,
  0xae, 0x4d, 0x70, 0x3b, 0x7b, 0x54, 0x0b, 0xbc, 0x37, 0xa7, 0x9e, 0x3b,
  0x6a, 0x72, 0xb8, 0x3c, 0xce, 0xc5, 0xbe, 0xbd, 0x2d, 0xd4, 0x88, 0xbe,
  0x45, 0x80, 0x4c, 0x3e, 0x36, 0xbf, 0x94, 0xbe, 0xba, 0x14, 0x6a, 0x3d,
  0x81, 0xdf, 0x54, 0xbe, 0xca, 0xd2, 0x26, 0x3e, 0xf8, 0x1d, 0x5d, 0x3e,
  0x73, 0xd6, 0x90, 0xbd, 0xc9, 0x3d, 0x88, 0xbe, 0xa1, 0x3e, 0x16, 0x3e,
  0x6d, 0xf1, 0x39, 0xbd, 0xcb, 0x99, 0x4d, 0x3d, 0x50, 0x01, 0x5e, 0xbe,
  0x5b, 0x47, 0xc7, 0x3d, 0x65, 0xf1, 0xb1, 0x3d, 0x50, 0xc3, 0x03, 0xbe,
  0x3b, 0xda, 0x79, 0x3e, 0x8f, 0x6a, 0x01, 0x3d, 0xbb, 0xba, 0x6d, 0xbe,
  0x7b, 0xa1, 0x03, 0xbc, 0xdc, 0x6c, 0x72, 0xbe, 0x78, 0x88, 0x9b, 0x3e,
  0x63, 0x43, 0xe4, 0x3e, 0xe2, 0x92, 0x21, 0xbe, 0x34, 0xbf, 0xaf, 0xbc,
  0xc0, 0x90, 0xa5, 0x3d, 0x93, 0xb2, 0xdb, 0x3d, 0x61, 0xdc, 0xb9, 0xbd,
  0x6f, 0xe2, 0xd1, 0x3c, 0x99, 0x2a, 0xa9, 0x3d, 0x2b, 0x01, 0xcf, 0xbd,
  0x28, 0x5d, 0x06, 0x3e, 0x85, 0x78, 0xe2, 0x3d, 0x43, 0x8f, 0x90, 0x3c,
  0x1a, 0x37, 0xf2, 0xbd, 0x80, 0x9a, 0x8d, 0x3e, 0xaa, 0xfd, 0xae, 0xbd,
  0x82, 0x08, 0x1e, 0x3e, 0x8a, 0xb9, 0x4a, 0x3e, 0xc7, 0x76, 0x8a, 0x3d,
  0x5e, 0xec, 0xe6, 0xbd, 0x6d, 0x70, 0x15, 0xbe, 0x89, 0xf2, 0x2d, 0x39,
  0x4f, 0xd3, 0x75, 0x3b, 0xbd, 0xc4, 0x1d, 0x3e, 0x20, 0x54, 0x29, 0x3e,
  0x74, 0x81, 0x12, 0x3d, 0x6f, 0xec, 0x51, 0xbd, 0x8f, 0xba, 0x60, 0xbd,
  0xc7, 0x6a, 0x3f, 0xbc, 0x3b, 0x08, 0x3b, 0x3e, 0x15, 0xc8, 0x8b, 0x3e,
  0xc8, 0x02, 0x8a, 0xbe, 0xb7, 0x4a, 0x87, 0xbd, 0xcd, 0x7b, 0xcc, 0x3e,
  0xd5, 0x42, 0x80, 0x3b, 0x03, 0x76, 0x55, 0xb8, 0x36, 0xbd, 0x9d, 0xbe,
  0x76, 0xc7, 0xff, 0xbd, 0xa9, 0x8f, 0xf7, 0x3d, 0x88, 0x47, 0x3a, 0x3e,
  0x7e, 0xdb, 0x78, 0xbd, 0x15, 0x36, 0xbd, 0xbd, 0x38, 0x59, 0x89, 0xbe,
  0x43, 0x6c, 0x00, 0xbe, 0x91, 0xd5, 0x2e, 0xbe, 0x76, 0xf0, 0x29, 0xbe,
  0x4e, 0xc4, 0xde, 0xbc, 0x01, 0x1d, 0x04, 0xbe, 0x6c, 0x43, 0xe5, 0x3d,
  0xdd, 0x01, 0x27, 0xbd, 0x20, 0x7a, 0x40, 0x3e, 0xab, 0xa8, 0xde, 0x3d,
  0x0b, 0x6d, 0x65, 0xbe, 0x63, 0x5b, 0x6f, 0xbd, 0xe7, 0x9a, 0xd1, 0x3d,
  0x74, 0xe9, 0x23, 0xbe, 0x52, 0xf2, 0x29, 0x3a, 0xfc, 0x9e, 0xbc, 0x3c,
  0x31, 0x68, 0x67, 0xbe, 0x68, 0xc7, 0x84, 0xbe, 0xdc, 0x8d, 0x14, 0xbe,
  0x36, 0xbf, 0x23, 0x3e, 0x54, 0x93, 0x92, 0x3e, 0x5f, 0x6d, 0xa4, 0xbd,
  0x19, 0x57, 0x05, 0xbd, 0x34, 0xb4, 0x18, 0x3d, 0x2d, 0x17, 0xc0, 0x3d,
  0x66, 0xda, 0xb6, 0xbd, 0xdf, 0x03, 0x4d, 0xbe, 0x97, 0xfb, 0x3d, 0xbe,
  0x2b, 0x43, 0x82, 0x3c, 0x70, 0xfd, 0x79, 0x3d, 0xe0, 0xbb, 0xef, 0xbe,
  0x7a, 0x7d, 0xf9, 0xbb, 0x29, 0xc5, 0xa9, 0xbe, 0x44, 0x1d, 0xd3, 0xbe,
  0x98, 0x90, 0x67, 0xbd, 0x05, 0x7c, 0x4a, 0x3e, 0x89, 0x97, 0xe8, 0x3d,
  0x89, 0xa7, 0x09, 0x3c, 0xc9, 0x76, 0xdf, 0x3e, 0x8e, 0x0a, 0xd5, 0xbd,
  0xb7, 0x8b, 0x37, 0x3e, 0xd3, 0xae, 0x4a, 0x3d, 0xcb, 0xf2, 0x43, 0xbf,
  0x10, 0x23, 0x89, 0x3e, 0x67, 0x17, 0x16, 0xbf, 0x67, 0xe8, 0x21, 0xbe,
  0x8d, 0x7f, 0x1d, 0xbe, 0x7e, 0x0a, 0x37, 0xbe, 0xe4, 0x04, 0x47, 0x3e,
  0xa3, 0xd4, 0xa9, 0xbe, 0x74, 0xd0, 0x6c, 0x3e, 0x2e, 0x90, 0xe9, 0x3d,
  0x85, 0x9e, 0x39, 0x3d, 0x70, 0x23, 0x0a, 0x3e, 0xe4, 0x34, 0x1b, 0xbd,
  0x94, 0x84, 0xc1, 0xbe, 0x11, 0x2a, 0x0e, 0x3e, 0x76, 0xc0, 0x90, 0x3d,
  0x30, 0x5f, 0xd6, 0xbd, 0x00, 0x00, 0x9b, 0x3c, 0xac, 0x5e, 0x22, 0xbf,
  0x9b, 0x04, 0x3c, 0x3e, 0x8c, 0xac, 0x54, 0x3e, 0x0c, 0xba, 0xd6, 0xbe,
  0x7f, 0x81, 0x0a, 0xbe, 0xef, 0xc5, 0x94, 0xbd, 0x55, 0xd3, 0x98, 0x3e,
  0xd2, 0xea, 0x7f, 0xbe, 0x60, 0xb7, 0x67, 0xbc, 0xfc, 0x52, 0xbb, 0x3d,
  0x4e, 0x83, 0x8f, 0xbe, 0x37, 0x82, 0xa1, 0x3e, 0x1b, 0xfa, 0x31, 0x3e,
  0x29, 0xde, 0x7c, 0x3c, 0x65, 0xf8, 0x1f, 0xbe, 0x60, 0x38, 0x35, 0xbd,
  0xa5, 0xd0, 0x04, 0xbf, 0x26, 0xc7, 0x9f, 0xbe, 0x88, 0xb7, 0x1b, 0xbe,
  0x40, 0x0c, 0x86, 0xbe, 0xda, 0x08, 0x98, 0xbd, 0x9f, 0xa1, 0xa0, 0xbe,
  0x03, 0x66, 0x5f, 0x3d, 0xc8, 0x43, 0x07, 0xbe, 0x50, 0xb1, 0x51, 0x3e,
  0x18, 0x13, 0x40, 0xbd, 0x36, 0xda, 0xc4, 0x3e, 0x6f, 0x18, 0x5d, 0xbe,
  0x91, 0x67, 0xe5, 0x3d, 0x24, 0x4d, 0x16, 0xbc, 0x14, 0xe3, 0xad, 0xbe,
  0x83, 0xdb, 0x9c, 0xbc, 0x74, 0x03, 0x0b, 0xbf, 0x8b, 0xdd, 0x0f, 0xbf,
  0xbe, 0x7c, 0xb2, 0xbd, 0xcd, 0x79, 0x71, 0xbe, 0xa4, 0x8b, 0x05, 0x3e,
  0x83, 0xae, 0x97, 0xbe, 0x0a, 0xf9, 0x2e, 0x3d, 0xde, 0xa8, 0xd4, 0x3d,
  0x38, 0xc5, 0xde, 0x3e, 0x4d, 0x3c, 0x34, 0x3e, 0xc1, 0x68, 0xe6, 0x3e,
  0x43, 0xa2, 0x19, 0xbf, 0xde, 0xf9, 0x34, 0xbd, 0xad, 0x85, 0x03, 0x3e,
  0x64, 0xda, 0x01, 0xbf, 0x64, 0x44, 0x9e, 0x3c, 0x92, 0x86, 0xff, 0xbe,
  0x36, 0x2c, 0xc9, 0xbd, 0x64, 0x74, 0x82, 0xbe, 0xcf, 0xe7, 0x9b, 0xbe,
  0xf8, 0xd4, 0xc9, 0xbd, 0x64, 0x69, 0x96, 0xbe, 0x2d, 0x9e, 0xa4, 0x3d,
  0x84, 0x61, 0x99, 0x3d, 0x82, 0x72, 0x96, 0x3e, 0x41, 0x41, 0xaf, 0x3d,
  0xbe, 0x10, 0x84, 0x3e, 0x93, 0x8d, 0x07, 0xbf, 0x4a, 0xe4, 0x33, 0x3d,
  0xa9, 0x62, 0xde, 0x3d, 0x04, 0x6d, 0x01, 0xbf, 0xab, 0xf0, 0x0d, 0x3e,
  0xad, 0xbb, 0x58, 0xbf, 0xf8, 0x34, 0xd8, 0xbe, 0x52, 0xf0, 0x1f, 0xbe,
  0x8b, 0xe9, 0x89, 0xbe, 0x31, 0xec, 0xce, 0xbe, 0xc8, 0x0b, 0x99, 0xbe,
  0x5e, 0x56, 0x1d, 0x3d, 0x17, 0x46, 0x22, 0xbe, 0x47, 0x09, 0x2f, 0xbf,
  0xd6, 0x3c, 0x83, 0x3d, 0xfa, 0x0f, 0xb5, 0x3e, 0x28, 0x5c, 0x06, 0xbf,
  0xaa, 0xb4, 0x11, 0xbd, 0xe5, 0x12, 0x1e, 0xbd, 0x79, 0x59, 0x72, 0xbf,
  0x18, 0x56, 0x13, 0x3c, 0xff, 0x05, 0xcb, 0x3d, 0x1a, 0xcb, 0x77, 0x3d,
  0x8d, 0xfe, 0x2f, 0xbf, 0x38, 0x58, 0xc6, 0x3d, 0xae, 0xf7, 0x12, 0xbf,
  0x95, 0x10, 0x23, 0xbf, 0x02, 0x46, 0x7e, 0xbe, 0x44, 0x3b, 0x2a, 0x3e,
  0x53, 0x41, 0x89, 0x3e, 0x01, 0xc5, 0xf0, 0x3c, 0x6c, 0xb6, 0x09, 0x3f,
  0xb0, 0xab, 0x08, 0x3e, 0x0e, 0x39, 0x1b, 0x3e, 0x34, 0x37, 0x66, 0x3b,
  0xc5, 0xab, 0x58, 0xbd, 0x95, 0x24, 0x62, 0x3e, 0xa2, 0x2e, 0x14, 0xbf,
  0x51, 0x41, 0x22, 0x3d, 0x0b, 0x37, 0xc8, 0xbe, 0xb5, 0x7a, 0x96, 0xbe,
  0xd4, 0x85, 0xc3, 0x3c, 0xb3, 0x0c, 0x97, 0xbe, 0x19, 0x86, 0x87, 0x3d,
  0xa0, 0x57, 0x45, 0x3c, 0xac, 0xad, 0x1d, 0xbe, 0xef, 0x57, 0x1d, 0x3e,
  0xef, 0x0e, 0x9c, 0xbe, 0xd8, 0x69, 0x75, 0x3e, 0x74, 0xac, 0x7c, 0x3e,
  0x44, 0x67, 0xec, 0x3d, 0x68, 0xa9, 0x7b, 0x3d, 0x4a, 0xb6, 0x17, 0x3e,
  0x04, 0xec, 0xdb, 0xbe, 0x14, 0x9a, 0x72, 0x3e, 0xa0, 0x8c, 0x4e, 0x3d,
  0xd9, 0x1f, 0x06, 0xbe, 0xbe, 0x61, 0x17, 0xbe, 0x36, 0x0d, 0x10, 0xbe,
  0x4b, 0x65, 0xac, 0x3e, 0x77, 0x6d, 0x6f, 0xbe, 0x01, 0x7c, 0x3f, 0x3c,
  0x01, 0x77, 0x49, 0x3b, 0xfd, 0xcf, 0xfc, 0xbd, 0x59, 0x66, 0x0a, 0x3e,
  0xca, 0x89, 0x8b, 0x3d, 0xfd, 0xb1, 0x8a, 0x3d, 0xe0, 0xf1, 0xeb, 0xbc,
  0x4f, 0x2a, 0x6f, 0x3e, 0x2d, 0x63, 0x46, 0xbe, 0xbe, 0x38, 0xc3, 0xbe,
  0xda, 0x5b, 0x69, 0xbe, 0x88, 0x08, 0x3c, 0xbe, 0xce, 0x23, 0xcb, 0xbe,
  0xa6, 0x0b, 0xd3, 0xbe, 0x30, 0x4d, 0x11, 0x3e, 0x04, 0xb8, 0x1e, 0xbd,
  0xdb, 0xa1, 0xab, 0x3e, 0xa9, 0x9a, 0x43, 0xbd, 0x8b, 0x89, 0xab, 0x3e,
  0x24, 0xaa, 0xf0, 0x3c, 0xcd, 0x95, 0x95, 0x3c, 0x53, 0x71, 0xc3, 0x3d,
  0x8f, 0x35, 0x65, 0xbd, 0x33, 0x28, 0x46, 0x3d, 0xde, 0x6e, 0x81, 0xbe,
  0xdd, 0xcc, 0x96, 0xbe, 0x91, 0xb5, 0x89, 0xbe, 0x87, 0x52, 0xda, 0x3c,
  0xe8, 0x78, 0xc7, 0x3d, 0x60, 0x16, 0xa5, 0xbe, 0x2c, 0x40, 0x11, 0xbe,
  0x78, 0x50, 0x86, 0x3e, 0xed, 0xf4, 0x45, 0x3e, 0xac, 0xca, 0xf3, 0x3d,
  0x36, 0xb3, 0xe7, 0x3e, 0x70, 0x55, 0xd6, 0xbe, 0x11, 0xd3, 0xec, 0x3d,
  0x3e, 0x54, 0x11, 0x3d, 0x64, 0xcf, 0xb5, 0xbd, 0xa9, 0x24, 0x80, 0xbc,
  0xa1, 0xdd, 0xdb, 0xbe, 0x6f, 0xf7, 0x62, 0xbe, 0xca, 0xf7, 0x73, 0xbe,
  0xc7, 0x59, 0x92, 0xbe, 0x8a, 0x9e, 0xbb, 0xbe, 0x8d, 0x7d, 0xf0, 0xbe,
  0xb9, 0x01, 0xff, 0x3d, 0x12, 0xea, 0x04, 0x3e, 0x57, 0x8a, 0xaf, 0x3e,
  0x1e, 0x44, 0x24, 0x3e, 0x62, 0xcc, 0x48, 0x3e, 0xb3, 0xe5, 0x86, 0xbd,
  0xad, 0x41, 0xca, 0x3d, 0xd1, 0xff, 0xda, 0x3d, 0xac, 0x7d, 0x1f, 0xbe,
  0x31, 0x80, 0xf2, 0x3c, 0x98, 0xa3, 0xbd, 0xbe, 0x8a, 0x6f, 0xbc, 0xbe,
  0x64, 0x07, 0x89, 0xbe, 0x9f, 0x58, 0xa7, 0x3d, 0xb3, 0xdc, 0x3f, 0xbe,
  0x19, 0xa9, 0xa7, 0xbc, 0xa8, 0xe8, 0x8e, 0x3d, 0xca, 0x66, 0xf9, 0x3c,
  0x10, 0x7c, 0xac, 0xbc, 0x02, 0x15, 0xfe, 0x3d, 0xab, 0xb8, 0x0e, 0x3d,
  0x61, 0x06, 0xf1, 0xbe, 0x18, 0x63, 0x8d, 0x3e, 0xab, 0x34, 0x80, 0xbd,
  0x88, 0x27, 0xa1, 0xbd, 0x03, 0xba, 0x6d, 0x3d, 0x5b, 0x9c, 0x88, 0x3e,
  0x48, 0x2e, 0x98, 0xbc, 0x85, 0x35, 0x07, 0xbf, 0x2f, 0x53, 0xcc, 0xbd,
  0x91, 0xf7, 0x8c, 0xbe, 0x96, 0xbe, 0xfe, 0xbe, 0xf7, 0x82, 0x5f, 0x3c,
  0x7d, 0xbd, 0xa8, 0x3c, 0xaa, 0xc8, 0xdf, 0xbb, 0x77, 0x1a, 0x69, 0xbd,
  0x24, 0x9f, 0xf9, 0x3e, 0x07, 0x68, 0x2b, 0x3d, 0x97, 0xe4, 0x98, 0xbe,
  0x37, 0x7a, 0x00, 0xbf, 0x11, 0xec, 0x0a, 0x3e, 0x5c, 0xc7, 0x06, 0x3e,
  0xc7, 0x5c, 0x50, 0xbc, 0x49, 0xd2, 0x97, 0x3d, 0xaa, 0x56, 0xc4, 0xbe,
  0x18, 0xf4, 0x70, 0x37, 0xa6, 0xe3, 0x02, 0xbd, 0x3c, 0x8c, 0x2a, 0xbd,
  0xea, 0xd9, 0xf3, 0x3d, 0xbb, 0x02, 0x38, 0x3d, 0xb2, 0xb4, 0xef, 0xbd,
  0xd5, 0xa6, 0x77, 0x3d, 0x67, 0x7f, 0xca, 0xbd, 0x2b, 0xad, 0xb6, 0x3d,
  0x5f, 0x07, 0x98, 0x3d, 0x75, 0x0a, 0x52, 0xbe, 0x15, 0xff, 0x50, 0xbd,
  0x6f, 0xe0, 0xaf, 0x3d, 0x87, 0xea, 0x86, 0xbd, 0xcf, 0x67, 0x91, 0x3e,
  0x25, 0xf7, 0xa9, 0xbd, 0x5a, 0xe7, 0xf4, 0xbd, 0x00, 0xa8, 0x95, 0x3d,
  0xf9, 0x28, 0x36, 0xbe, 0xdf, 0x0f, 0x1f, 0x3e, 0x0e, 0x66, 0x7c, 0xbc,
  0x6e, 0xe8, 0xe9, 0xbd, 0xf1, 0x00, 0xe9, 0x3d, 0x19, 0x09, 0x03, 0x3e,
  0x69, 0xa3, 0xef, 0x3e, 0x87, 0x61, 0x8e, 0x3d, 0xf5, 0xab, 0xaf, 0xbe,
  0xa8, 0x05, 0x07, 0xbe, 0xae, 0x5b, 0xce, 0x3c, 0xf0, 0x68, 0x07, 0x3e,
  0x47, 0x2a, 0xc3, 0x3e, 0x45, 0x4e, 0xed, 0xbd, 0xad, 0x0f, 0x2d, 0xbd,
  0x9f, 0xf9, 0xc8, 0xbd, 0xc4, 0x2b, 0xf5, 0xbd, 0x01, 0xb1, 0x41, 0x3e,
  0xd5, 0xd5, 0xaf, 0xbc, 0x32, 0x1b, 0xe8, 0x3d, 0x63, 0xca, 0x5e, 0x3e,
  0x5d, 0x78, 0x94, 0x3e, 0xd3, 0xf8, 0x20, 0x3f, 0x3c, 0x8e, 0x43, 0xbe,
  0x04, 0xf4, 0xe8, 0xbe, 0xe6, 0x72, 0xdd, 0x3d, 0x49, 0xa3, 0x60, 0x3d,
  0xc5, 0x13, 0x1e, 0x3e, 0x87, 0xe2, 0x6d, 0x3e, 0x37, 0x8e, 0x8f, 0xbe,
  0xc0, 0x0c, 0x57, 0x3d, 0x6a, 0x86, 0x0a, 0x3b, 0x3c, 0xb0, 0xad, 0x3c,
  0x19, 0x89, 0x0e, 0x3e, 0x8c, 0x43, 0x93, 0xbe, 0xd1, 0x25, 0x8d, 0xbd,
  0x65, 0x11, 0x16, 0x3e, 0x80, 0xe9, 0x38, 0x3d, 0x52, 0x5a, 0xb5, 0xbd,
  0x0d, 0x9b, 0x37, 0x3e, 0x7a, 0x5c, 0x7d, 0xbe, 0xe7, 0x46, 0xb8, 0x3c,
  0x29, 0xbe, 0xec, 0x3c, 0x65, 0x03, 0xe7, 0xbd, 0x77, 0xd2, 0x0b, 0x3e,
  0x84, 0xad, 0x0c, 0xbe, 0x84, 0xb1, 0x9d, 0xbe, 0x24, 0xb9, 0x6d, 0xbd,
  0x4b, 0xe4, 0x46, 0xbe, 0x7f, 0x92, 0x94, 0x3b, 0x73, 0x3d, 0xd4, 0xbd,
  0x91, 0xe5, 0xfe, 0x3d, 0xc6, 0x63, 0x04, 0xbd, 0x68, 0xf1, 0x57, 0x3e,
  0xd6, 0xd3, 0x12, 0x3e, 0xf3, 0x15, 0x1c, 0xbe, 0x68, 0x39, 0xe0, 0xbe,
  0xc1, 0x51, 0x80, 0xbd, 0xc1, 0x71, 0x9b, 0x3d, 0x6e, 0xab, 0x25, 0xbd,
  0xf5, 0x48, 0x62, 0x3e, 0x3b, 0x0a, 0x81, 0xbe, 0x32, 0x38, 0xe0, 0xbd,
  0x60, 0xcc, 0x91, 0x3d, 0x08, 0x6b, 0xd4, 0xbe, 0x24, 0x91, 0x5a, 0xbe,
  0xe2, 0x14, 0x8b, 0xbb, 0x3f, 0x9a, 0x13, 0x3e, 0xe5, 0x06, 0xc8, 0x3b,
  0xc5, 0x6c, 0x8c, 0x3e, 0xe7, 0x1c, 0x95, 0x3d, 0x46, 0x8b, 0xd6, 0x3d,
  0x1b, 0xdf, 0x81, 0xbe, 0xed, 0x0e, 0xbc, 0xbd, 0x08, 0xe7, 0x04, 0x3e,
  0x2d, 0xa5, 0x42, 0xbe, 0x10, 0xba, 0x0c, 0xbe, 0xdd, 0x55, 0x7a, 0xbe,
  0xa1, 0x98, 0xdc, 0xbd, 0x78, 0xaf, 0x23, 0xbe, 0x91, 0x64, 0x73, 0x3d,
  0x81, 0x2a, 0x9b, 0x3d, 0xad, 0xff, 0xbc, 0xbd, 0x71, 0x67, 0x78, 0xbe,
  0xb3, 0x59, 0xb3, 0xbe, 0x7d, 0x82, 0x2b, 0xbe, 0xfa, 0x0f, 0xdf, 0xbd,
  0xce, 0x4b, 0x66, 0xbe, 0x61, 0xe9, 0x9f, 0xbe, 0x80, 0x8f, 0x0f, 0xbe,
  0xfe, 0x7f, 0xf7, 0xbd, 0x23, 0x17, 0x19, 0xbe, 0x5c, 0x69, 0x46, 0x3d,
  0xb6, 0xf3, 0x19, 0xbe, 0x5a, 0x49, 0x68, 0xbe, 0x60, 0xcb, 0x69, 0xbe,
  0x70, 0xa1, 0xc1, 0x3d, 0x34, 0xee, 0x18, 0x3e, 0xc0, 0x9c, 0xea, 0xbd,
  0xe3, 0x1d, 0x5f, 0xbe, 0x63, 0xf6, 0x8c, 0xbd, 0x25, 0xd9, 0x38, 0xbe,
  0xcc, 0x9a, 0x1c, 0x3d, 0x9b, 0x53, 0xec, 0xbb, 0xfa, 0x50, 0x18, 0xbe,
  0xa5, 0xad, 0xb5, 0xbd, 0x88, 0x37, 0xf9, 0xbd, 0x15, 0x8c, 0x1a, 0xbe,
  0x55, 0xa5, 0x39, 0xbe, 0x58, 0x81, 0x80, 0xbb, 0x32, 0xdc, 0x30, 0xbe,
  0x90, 0x06, 0x3b, 0xbe, 0x99, 0xd0, 0x5e, 0xbe, 0x33, 0x96, 0x17, 0xbd,
  0x46, 0x9e, 0x99, 0x3d, 0x7a, 0xe0, 0x4c, 0xbc, 0x83, 0x5f, 0x2d, 0x3d,
  0xe8, 0xa2, 0x7e, 0xbe, 0x5f, 0x76, 0x1f, 0x3e, 0x32, 0x21, 0x1c, 0x3d,
  0x22, 0xc7, 0x12, 0xbd, 0xd9, 0x82, 0x60, 0xbe, 0x79, 0xa0, 0xfa, 0xbd,
  0x97, 0x16, 0x3b, 0xbd, 0xc1, 0x40, 0x90, 0xbd, 0x04, 0xcd, 0x67, 0xbe,
  0xcc, 0xf9, 0xb2, 0x3d, 0x50, 0x50, 0x2c, 0x3a, 0x17, 0xff, 0x77, 0xbe,
  0x1c, 0x2f, 0xad, 0xbc, 0xd7, 0xd0, 0x44, 0xbe, 0xe1, 0xd7, 0x06, 0x3e,
  0x0f, 0xc6, 0x5d, 0xbe, 0x2f, 0x53, 0x6e, 0xbe, 0x2d, 0x4a, 0xa2, 0xbd,
  0x19, 0x0e, 0x49, 0xbe, 0x85, 0x64, 0xa7, 0xbe, 0x3d, 0xda, 0xea, 0xbd,
  0x94, 0x48, 0x06, 0xbe, 0xc4, 0xa2, 0x2f, 0x3e, 0x9c, 0x5b, 0x4e, 0xbe,
  0x86, 0x8a, 0xa1, 0xbb, 0xf2, 0xb8, 0x52, 0xbd, 0x1a, 0x01, 0xd4, 0x3d,
  0xe2, 0x32, 0x37, 0x3d, 0x76, 0xee, 0x33, 0xbb, 0x2a, 0x59, 0x62, 0xbe,
  0x08, 0x30, 0x3b, 0xbe, 0x0d, 0xed, 0x3a, 0xbe, 0xc4, 0xbb, 0x13, 0xbe,
  0x6c, 0x73, 0x0f, 0x3e, 0x1f, 0xad, 0x05, 0x3e, 0xae, 0x75, 0xd8, 0xbc,
  0x67, 0x8b, 0x32, 0xbc, 0x96, 0xae, 0x1b, 0xbe, 0x2a, 0x9b, 0x09, 0x3d,
  0xa3, 0xa6, 0xf7, 0xbd, 0x67, 0x8c, 0xaa, 0x3c, 0xd8, 0x27, 0x2f, 0xbe,
  0x18, 0x01, 0x59, 0xbe, 0x33, 0x8c, 0x5c, 0xbd, 0x0f, 0x39, 0x15, 0x3e,
  0xdf, 0x0b, 0xd7, 0xbd, 0x00, 0xd5, 0x79, 0xbc, 0xb5, 0xd8, 0x03, 0xbe,
  0x31, 0xf6, 0x15, 0xbe, 0x0e, 0x2d, 0x94, 0x3d, 0x1c, 0x94, 0xd7, 0xbd,
  0x43, 0x9e, 0x92, 0xbe, 0x0c, 0x08, 0x47, 0x39, 0x0c, 0xd9, 0x34, 0xbe,
  0xb2, 0x57, 0x24, 0xbe, 0x69, 0xd9, 0x51, 0xbe, 0x11, 0x8b, 0x98, 0xbe,
  0x70, 0xa9, 0x10, 0xbe, 0xd9, 0x0c, 0xfb, 0xbb, 0xfd, 0xf0, 0xac, 0xbd,
  0x73, 0x2b, 0x08, 0xbe, 0x8f, 0x79, 0x11, 0xbe, 0xa0, 0x4c, 0x08, 0xbe,
  0x61, 0x48, 0xd3, 0xbe, 0x21, 0x1c, 0x81, 0x3b, 0x0e, 0x2c, 0x1f, 0x3e,
  0x10, 0xa0, 0xe2, 0xbd, 0x71, 0x06, 0x93, 0xbd, 0x53, 0xd6, 0x9d, 0x3c,
  0xdb, 0x45, 0x06, 0xbd, 0x7a, 0x21, 0x20, 0xbd, 0xa5, 0x2b, 0x90, 0xbe,
  0x41, 0x79, 0xd1, 0xbe, 0x19, 0x1b, 0x81, 0xbe, 0x00, 0xc4, 0xa9, 0xbe,
  0xa1, 0x53, 0x8b, 0xbd, 0x7e, 0xcc, 0xee, 0xbd, 0x80, 0x10, 0x1f, 0xbe,
  0xc5, 0x2a, 0x36, 0x3d, 0x55, 0x6f, 0x98, 0xbe, 0xce, 0x24, 0x7d, 0x3e,
  0x15, 0x0c, 0x0e, 0xbe, 0xf4, 0xfa, 0x33, 0xbe, 0xfe, 0x50, 0xca, 0xbe,
  0xfc, 0xc9, 0x6b, 0x3e, 0x4d, 0xa5, 0x3a, 0xbd, 0xa9, 0x86, 0xb6, 0x3c,
  0x23, 0x08, 0x9e, 0x3d, 0x33, 0x5a, 0x05, 0xbe, 0x23, 0xc7, 0x15, 0x3d,
  0x61, 0xe2, 0x1c, 0xbe, 0x32, 0xbe, 0x00, 0xbe, 0x5b, 0xcc, 0x31, 0x3c,
  0xa8, 0x5d, 0xb8, 0xbd, 0x72, 0xf8, 0xc6, 0xbd, 0xd9, 0x6c, 0xea, 0xbd,
  0x07, 0x1d, 0x50, 0xbb, 0x47, 0xda, 0x3c, 0xbd, 0xa1, 0xf0, 0x59, 0xbe,
  0x58, 0x1a, 0xaa, 0xbd, 0xab, 0x50, 0x9c, 0xbd, 0xf0, 0x47, 0x6a, 0x3e,
  0x09, 0xe2, 0x3c, 0x3d, 0x8f, 0x07, 0x70, 0x3e, 0x28, 0x15, 0x11, 0x3e,
  0x33, 0x52, 0x04, 0xbe, 0x47, 0xbe, 0x62, 0xbe, 0x5b, 0x25, 0x49, 0xbb,
  0x02, 0x5d, 0x81, 0xbc, 0xf4, 0xc3, 0xf5, 0xbd, 0xa8, 0x01, 0x2a, 0xbe,
  0x5d, 0xa1, 0x6b, 0xbe, 0x31, 0x2b, 0xa8, 0x3d, 0x0c, 0x34, 0x1c, 0xbd,
  0x77, 0xc4, 0xb5, 0xbd, 0x56, 0xb5, 0x8c, 0xbe, 0x8e, 0x1a, 0xe7, 0x3d,
  0x24, 0xcd, 0x37, 0x3c, 0xfb, 0x9f, 0x51, 0x3d, 0x2e, 0x34, 0xb9, 0xbc,
  0xcc, 0xc6, 0x44, 0xbe, 0xcf, 0x73, 0x2f, 0xbd, 0x72, 0xda, 0x3a, 0xbe,
  0x8c, 0x91, 0x65, 0xbd, 0x59, 0x79, 0x03, 0xbe, 0x47, 0x1a, 0x64, 0xbd,
  0xf1, 0xd2, 0xd6, 0x3d, 0x2c, 0x58, 0x5c, 0xbd, 0xf1, 0x22, 0xf3, 0xbb,
  0xef, 0xb8, 0x9a, 0xbc, 0xda, 0xe1, 0x10, 0xbe, 0xee, 0x01, 0xc7, 0xbe,
  0xfb, 0x24, 0x11, 0x3e, 0x39, 0x94, 0x3f, 0x3e, 0xb4, 0xe0, 0xbe, 0x3d,
  0x11, 0xd6, 0xd8, 0x3d, 0xa7, 0x4b, 0xae, 0xbb, 0xc6, 0x88, 0x15, 0x3d,
  0x88, 0x0b, 0xf7, 0xbd, 0x43, 0xa4, 0x97, 0xbd, 0x36, 0x03, 0xd7, 0xbd,
  0xb8, 0x95, 0x21, 0xbe, 0x44, 0xa0, 0xd3, 0xbd, 0x4b, 0x7e, 0x36, 0xbe,
  0x7b, 0x13, 0xc6, 0xbd, 0xeb, 0x14, 0x39, 0x3e, 0x89, 0xfa, 0xb5, 0x3d,
  0x22, 0xd9, 0x32, 0xbd, 0x7e, 0xfc, 0x4a, 0xbd, 0xe9, 0x9e, 0x13, 0x3e,
  0x86, 0x16, 0x81, 0xbd, 0x2f, 0x5b, 0x1a, 0x3e, 0x73, 0x63, 0xa9, 0xbd,
  0x21, 0x0d, 0xfa, 0xbd, 0xe0, 0x3a, 0x39, 0xbd, 0x7f, 0x1e, 0x85, 0x3c,
  0x39, 0x81, 0x05, 0x3e, 0xc9, 0x08, 0x88, 0x3d, 0xa1, 0x78, 0x62, 0xbe,
  0x27, 0xee, 0x85, 0xbe, 0x00, 0xb2, 0x12, 0xbd, 0xed, 0x0a, 0x04, 0xbd,
  0xc9, 0x9a, 0x51, 0xbe, 0xde, 0xbf, 0x40, 0xbe, 0xcb, 0x99, 0x67, 0xbb,
  0x5c, 0x30, 0x01, 0x3e, 0xa2, 0xe0, 0xc7, 0xbd, 0x4b, 0x98, 0x36, 0xbe,
  0x8c, 0x4d, 0xf3, 0xbd, 0x2e, 0x08, 0x50, 0xbe, 0x7d, 0x55, 0x80, 0xbc,
  0x36, 0x4f, 0x58, 0xbd, 0xa1, 0x88, 0x92, 0xbe, 0x52, 0x0b, 0x96, 0x3d,
  0x09, 0xf3, 0x56, 0xbe, 0x4d, 0x0b, 0x23, 0xbe, 0x74, 0x11, 0x48, 0xbe,
  0xc3, 0x09, 0x9f, 0xbe, 0x25, 0x7f, 0x28, 0xbe, 0x9a, 0x16, 0x7c, 0xbe,
  0x91, 0x91, 0x4f, 0x3d, 0x10, 0x3e, 0x04, 0x3d, 0xdb, 0xb8, 0x1b, 0xbe,
  0x05, 0x20, 0x9e, 0x3d, 0x89, 0x16, 0xae, 0x3c, 0x63, 0xdc, 0xaf, 0xbd,
  0x8f, 0x43, 0x9d, 0xbe, 0x22, 0x18, 0x47, 0xbe, 0x6f, 0x8c, 0x6c, 0xbd,
  0x40, 0x31, 0x84, 0xbe, 0x34, 0xec, 0xa2, 0xbe, 0xf0, 0x02, 0x80, 0x3c,
  0xf0, 0xc8, 0xba, 0xbd, 0x09, 0x96, 0x85, 0xbd, 0x84, 0xf5, 0x81, 0xbe,
  0xb2, 0xb7, 0x3d, 0xbd, 0xd3, 0x51, 0xa6, 0xbd, 0x24, 0x8b, 0x5e, 0xbe,
  0xcf, 0x99, 0x9a, 0x3c, 0x76, 0xb1, 0x51, 0xbe, 0x0c, 0x21, 0x91, 0xbe,
  0xde, 0xc7, 0x3e, 0xbd, 0xc0, 0xb3, 0x75, 0xbe, 0x85, 0x18, 0x8d, 0xbe,
  0xc0, 0x6e, 0x9e, 0x3d, 0x50, 0xa3, 0xa9, 0xbe, 0x2a, 0xdb, 0x91, 0xbe,
  0x9c, 0xb8, 0x91, 0xbd, 0x53, 0x76, 0x0a, 0xbe, 0x2b, 0xcf, 0xcb, 0xbc,
  0x19, 0x8e, 0x73, 0x3d, 0xa2, 0xcf, 0xb3, 0xbd, 0xf5, 0x8e, 0x44, 0x3d,
  0x5f, 0xc2, 0x69, 0x3d, 0xb5, 0x8a, 0x6d, 0x3d, 0x88, 0x95, 0x08, 0x3e,
  0x09, 0xa0, 0x37, 0xbe, 0x21, 0x0a, 0x1f, 0x3c, 0x9f, 0x06, 0x71, 0xbe,
  0x94, 0x2b, 0x89, 0xbe, 0x4b, 0x95, 0x1e, 0xbc, 0x00, 0x88, 0x4d, 0xbe,
  0x07, 0x4b, 0xd1, 0xbd, 0x43, 0x17, 0xca, 0xbc, 0xa3, 0xd6, 0xb6, 0x3d,
  0xee, 0x4d, 0xed, 0xbd, 0x37, 0xb6, 0x8c, 0x3d, 0xd2, 0x8b, 0x5c, 0xbe,
  0x43, 0x61, 0x37, 0xbe, 0x38, 0x68, 0x5d, 0xbe, 0x9f, 0xae, 0x62, 0xbe,
  0x6c, 0x16, 0x0c, 0xbd, 0x53, 0xaa, 0x20, 0x3d, 0xdb, 0xc0, 0x32, 0xbe,
  0xc1, 0x1e, 0xec, 0xbd, 0x1d, 0x32, 0x80, 0xbd, 0xe3, 0x29, 0xaa, 0xbc,
  0xdd, 0x92, 0xaa, 0xbd, 0x53, 0x9c, 0x93, 0xbd, 0xc2, 0xdb, 0x55, 0xbd,
  0xa8, 0x01, 0x3d, 0xbd, 0x4f, 0x9e, 0x1e, 0x3d, 0xbb, 0x51, 0x8b, 0xbe,
  0x2d, 0xc1, 0x41, 0x3c, 0xe5, 0xde, 0xc0, 0x3d, 0x74, 0x74, 0xbe, 0xbd,
  0x81, 0x93, 0xbc, 0x3c, 0xb9, 0x42, 0xbb, 0xbd, 0xb7, 0x35, 0xc2, 0x3d,
  0x37, 0xcc, 0x41, 0xbe, 0xce, 0xc6, 0xc1, 0xbd, 0x86, 0xdc, 0xaf, 0x3d,
  0x3c, 0xe0, 0x85, 0xbd, 0x4a, 0x49, 0xac, 0xbd, 0x51, 0xed, 0x64, 0xbe,
  0x03, 0x7f, 0xfa, 0xbd, 0x17, 0xcd, 0xd3, 0x3d, 0x0f, 0xa2, 0x5d, 0x3c,
  0xf5, 0x4c, 0xd1, 0xbd, 0x13, 0x57, 0x9f, 0xbd, 0x3d, 0xad, 0x41, 0x3d,
  0xa0, 0xc5, 0x0d, 0x3b, 0x60, 0xbe, 0x03, 0xbe, 0xc9, 0x28, 0x48, 0xbe,
  0x8a, 0x0d, 0xab, 0x3d, 0x15, 0xda, 0x66, 0xbd, 0x0e, 0x35, 0x74, 0xbe,
  0xf8, 0x9a, 0xee, 0xbd, 0x14, 0xe6, 0xa5, 0xbd, 0x30, 0xa2, 0xc2, 0xbd,
  0x26, 0x46, 0x9a, 0x3c, 0x6e, 0xde, 0x2b, 0xbe, 0x83, 0x04, 0xc9, 0xbc,
  0xbf, 0xc5, 0x17, 0xbe, 0xfe, 0xaf, 0x07, 0xbd, 0x5b, 0x4d, 0x50, 0xbe,
  0xfc, 0xb2, 0x78, 0xbe, 0xbc, 0xc2, 0x32, 0xbe, 0x6e, 0xcc, 0x7c, 0xbe,
  0x2c, 0x42, 0x10, 0xbe, 0xb9, 0xb0, 0x72, 0xbe, 0x70, 0x63, 0xca, 0x3c,
  0x53, 0x43, 0x67, 0xbe, 0x41, 0x6f, 0xdb, 0xbd, 0x17, 0xea, 0xb2, 0xbd,
  0xae, 0xf8, 0x4e, 0xbe, 0x55, 0x1b, 0x88, 0xbe, 0x14, 0xbb, 0xef, 0xbd,
  0xc5, 0x41, 0x31, 0x3e, 0x32, 0x2e, 0x2d, 0xbe, 0xa4, 0x49, 0x82, 0xbe,
  0xb3, 0x6e, 0xa0, 0xbd, 0x54, 0x59, 0x6a, 0xbe, 0x99, 0xa1, 0xce, 0x3d,
  0x0a, 0x43, 0x30, 0xbd, 0x54, 0xb3, 0x8b, 0xbe, 0x8e, 0xc6, 0xd8, 0xbe,
  0xe7, 0x4b, 0xcf, 0xbd, 0xac, 0x00, 0x85, 0xbe, 0x5c, 0xfb, 0x17, 0xbe,
  0x24, 0x51, 0x57, 0xbe, 0x71, 0x10, 0xda, 0xbc, 0x2b, 0xae, 0xeb, 0x3d,
  0xe3, 0x59, 0xcb, 0xbd, 0x4c, 0xf5, 0xe1, 0x3e, 0x04, 0x57, 0xaf, 0x3e,
  0x76, 0xa4, 0x8a, 0xbe, 0x96, 0x1d, 0x62, 0xbe, 0x3e, 0x45, 0xa7, 0xbd,
  0x0a, 0x5c, 0x69, 0xbe, 0x2d, 0xf2, 0xb3, 0x3d, 0x9a, 0x53, 0x8d, 0xbe,
  0x72, 0xc0, 0x3e, 0x3c, 0xd5, 0xcf, 0xb5, 0xbe, 0x74, 0x07, 0x9d, 0xbe,
  0x4a, 0x84, 0xe7, 0x3d, 0xaf, 0xf4, 0xa9, 0xbc, 0x63, 0x37, 0x90, 0xbd,
  0x1c, 0x00, 0x2b, 0x3e, 0x43, 0x52, 0x5c, 0xbe, 0x10, 0x68, 0xac, 0x3e,
  0x72, 0xff, 0x49, 0x3f, 0x14, 0xc9, 0x8b, 0xbe, 0xad, 0x12, 0x8b, 0xbd,
  0xfe, 0x50, 0x13, 0xbe, 0x39, 0xc4, 0xe2, 0xbd, 0xb6, 0x12, 0x85, 0xbe,
  0xab, 0x2c, 0xdf, 0xbd, 0xa3, 0x8d, 0x9b, 0xbe, 0xe9, 0x0a, 0x95, 0xbe,
  0xdf, 0xc7, 0xef, 0xbd, 0xce, 0x19, 0x3b, 0xbd, 0x04, 0x50, 0xb6, 0xbd,
  0x93, 0x22, 0x77, 0xbc, 0x45, 0xc9, 0x44, 0x3e, 0x5a, 0x3b, 0x95, 0xbe,
  0x3a, 0x7d, 0xc6, 0x3e, 0x0f, 0xca, 0x14, 0x3f, 0x19, 0xfe, 0x16, 0xbe,
  0x82, 0x1f, 0x46, 0x3d, 0x8b, 0xda, 0x70, 0xbd, 0xe1, 0x25, 0xa6, 0xbe,
  0x39, 0x32, 0x33, 0xbe, 0x42, 0x1e, 0x30, 0x3e, 0xab, 0x1a, 0xf1, 0xbd,
  0x3f, 0xdf, 0x0b, 0xbb, 0xf4, 0x1a, 0xd2, 0xbd, 0x5c, 0x1d, 0x17, 0xbe,
  0x79, 0x30, 0x46, 0xbe, 0xa2, 0xad, 0x21, 0xbe, 0x32, 0x8d, 0x84, 0x3e,
  0x01, 0xf7, 0xc8, 0xbd, 0x7e, 0x86, 0xd7, 0x3e, 0x5e, 0xaa, 0x34, 0x3f,
  0x5c, 0x1a, 0x73, 0x3e, 0x3c, 0x9b, 0xf8, 0xbc, 0x35, 0x63, 0x29, 0xbe,
  0xae, 0x07, 0x96, 0xbd, 0xe8, 0x88, 0xb0, 0x3d, 0xb7, 0xdf, 0xf8, 0x3b,
  0xd1, 0xb6, 0x77, 0xbe, 0xd0, 0x05, 0xc4, 0xbd, 0x76, 0xe2, 0x73, 0xbe,
  0x22, 0x1b, 0x82, 0x3d, 0x74, 0x8b, 0x73, 0xbe, 0x03, 0x25, 0x53, 0xbd,
  0x7c, 0x25, 0x9c, 0x3d, 0x3f, 0x38, 0x8b, 0x3d, 0x0d, 0x8e, 0xbe, 0x3d,
  0xa0, 0x46, 0x15, 0x3f, 0xe1, 0x71, 0xd2, 0xbd, 0x19, 0x3d, 0x87, 0xbe,
  0x4b, 0x80, 0x02, 0xbe, 0x67, 0x8a, 0xa9, 0xbd, 0xa1, 0x40, 0x82, 0xbe,
  0xd1, 0x60, 0x12, 0xbd, 0x07, 0x2e, 0x85, 0xbd, 0x90, 0x2a, 0x12, 0x3c,
  0x02, 0xfb, 0x6b, 0xbe, 0x30, 0x26, 0x3d, 0x3d, 0x62, 0x75, 0xdf, 0x3d,
  0xda, 0x1e, 0x0d, 0xbd, 0xba, 0xf6, 0x36, 0x3d, 0xc8, 0x86, 0x9e, 0xbe,
  0x69, 0xd8, 0x99, 0x3e, 0x6c, 0x85, 0x0c, 0x3f, 0x56, 0xc4, 0xbc, 0xbd,
  0xec, 0x07, 0xa1, 0xbe, 0xdd, 0x34, 0xa8, 0xbd, 0x0c, 0x1b, 0x9b, 0xbe,
  0x72, 0xc5, 0x7b, 0xbe, 0x91, 0x83, 0x98, 0xbe, 0xc5, 0x56, 0xb3, 0xbe,
  0xc4, 0x92, 0xa8, 0xbe, 0xdf, 0xc4, 0x3e, 0xbd, 0xc5, 0x17, 0x3a, 0xbe,
  0x29, 0x77, 0x98, 0xbe, 0x6d, 0xfe, 0x04, 0xbe, 0xea, 0x2b, 0x95, 0x3e,
  0x82, 0xa1, 0x5a, 0xbd, 0x9d, 0xab, 0xaf, 0x3e, 0x46, 0x0d, 0x13, 0x3f,
  0xac, 0x7f, 0x34, 0xbd, 0xea, 0xc2, 0x97, 0xbe, 0xd3, 0x84, 0xb4, 0xbe,
  0x56, 0x57, 0x2f, 0xbe, 0xec, 0xb4, 0x31, 0x3d, 0x64, 0x11, 0xd7, 0x3d,
  0x9b, 0x25, 0xcd, 0xbe, 0x9f, 0xd5, 0x3f, 0xbe, 0x05, 0xbf, 0xc8, 0xbe,
  0x8e, 0x85, 0xe6, 0xbe, 0x13, 0xe9, 0x80, 0xbb, 0xcf, 0xb2, 0x40, 0x3e,
  0xcd, 0xd6, 0x18, 0x3e, 0xed, 0x45, 0xd5, 0xb8, 0x98, 0xd0, 0x20, 0x3f,
  0xf2, 0x0e, 0x47, 0x3e, 0x4d, 0xe4, 0x55, 0x3e, 0xf4, 0xcd, 0x66, 0x3d,
  0x12, 0x89, 0x10, 0xbf, 0x82, 0x99, 0xa6, 0xbd, 0xc7, 0x26, 0xa0, 0xbe,
  0x4d, 0x52, 0x33, 0xbe, 0x4a, 0x51, 0xba, 0xbd, 0xd2, 0x64, 0x92, 0xbe,
  0x3f, 0x8c, 0xc2, 0xbd, 0x38, 0xa9, 0xa6, 0xbe, 0x79, 0xf3, 0xaf, 0x3d,
  0x58, 0x16, 0xaf, 0x3d, 0x8a, 0x3b, 0xc9, 0xbd, 0x45, 0x35, 0x02, 0x3e,
  0x3c, 0x03, 0x03, 0x3e, 0x81, 0xad, 0xc8, 0x3c, 0xef, 0xb6, 0x20, 0xbd,
  0x5e, 0xb3, 0x09, 0x3e, 0x2d, 0x15, 0x98, 0xbe, 0x4b, 0x90, 0x8c, 0xbe,
  0x1c, 0xba, 0xc3, 0xbe, 0x36, 0xa0, 0xca, 0x3e, 0x43, 0x63, 0x9b, 0x3e,
  0x91, 0x4d, 0x88, 0xbe, 0x19, 0xe5, 0x0b, 0xbd, 0xf1, 0xb0, 0x1d, 0xbd,
  0xcc, 0x02, 0xf8, 0x3d, 0xfd, 0xd6, 0x4b, 0xbe, 0xc3, 0xec, 0xaa, 0x39,
  0x05, 0xa7, 0x33, 0x3d, 0xa2, 0xb8, 0x44, 0xbe, 0xf6, 0x44, 0xd0, 0x3e,
  0x56, 0xb1, 0x72, 0x3d, 0x81, 0x11, 0x9c, 0x3d, 0x10, 0x3d, 0x69, 0x3c,
  0xa4, 0xd1, 0x0d, 0xbc, 0xa0, 0x85, 0x94, 0xbe, 0x47, 0x50, 0x28, 0xbe,
  0xa0, 0x11, 0xfc, 0x3b, 0xb7, 0x29, 0xca, 0xbe, 0x53, 0xaa, 0x02, 0xbe,
  0xa8, 0x69, 0xa9, 0xbe, 0x38, 0x29, 0xba, 0x3b, 0xe3, 0xe8, 0x2e, 0xbe,
  0x27, 0xbd, 0x19, 0x3e, 0x16, 0x7f, 0x50, 0xbd, 0x1d, 0xa0, 0x5c, 0x3e,
  0x53, 0xd3, 0x1e, 0x3e, 0x54, 0x78, 0x27, 0xbc, 0x5c, 0x28, 0x4b, 0x3c,
  0x9c, 0xf6, 0x9d, 0xbd, 0x15, 0x3c, 0xba, 0xbe, 0x9e, 0x67, 0x03, 0xbf,
  0x9a, 0x7b, 0xb8, 0xbe, 0xdc, 0x81, 0x92, 0x3d, 0x42, 0x3b, 0x9b, 0xbe,
  0x59, 0xcc, 0xd4, 0x3d, 0x75, 0xc9, 0x91, 0xbe, 0x94, 0x73, 0x60, 0xbe,
  0xc3, 0xac, 0xd2, 0x3d, 0xab, 0xcf, 0xad, 0x3e, 0xef, 0xe3, 0xd6, 0x3d,
  0xc5, 0x2f, 0xfe, 0x3e, 0x07, 0xd3, 0x84, 0xbe, 0xb5, 0x22, 0x51, 0xbd,
  0x2d, 0x14, 0xa4, 0x3d, 0x98, 0x6c, 0xa9, 0xbe, 0xb6, 0x45, 0xbe, 0xbd,
  0xb8, 0x2d, 0x7d, 0xbe, 0xb1, 0x5f, 0x07, 0xbd, 0x24, 0x3b, 0x7f, 0xbd,
  0x42, 0x61, 0xc8, 0xbe, 0x9c, 0x04, 0x3e, 0xbe, 0x8e, 0xbf, 0x99, 0xbe,
  0x72, 0xbe, 0x19, 0xbd, 0xd9, 0xe0, 0x18, 0xbd, 0x79, 0xf1, 0x2e, 0x3e,
  0x22, 0xb0, 0x7f, 0x3d, 0x50, 0x12, 0x97, 0x3e, 0x2c, 0x89, 0x5d, 0x3d,
  0x0d, 0xa1, 0xc7, 0xbc, 0x81, 0x60, 0x08, 0xbd, 0x04, 0xc0, 0x81, 0xbe,
  0x9f, 0x02, 0x6e, 0xbe, 0xa2, 0xc9, 0x0e, 0xbf, 0x3f, 0xf4, 0x2f, 0xbe,
  0xad, 0x9c, 0xcb, 0xbd, 0xe8, 0xb4, 0x9e, 0xbc, 0x62, 0x07, 0xb9, 0xbe,
  0x03, 0xdf, 0x1d, 0xbf, 0x66, 0x8b, 0x99, 0x3d, 0x4e, 0x3a, 0x3b, 0xbc,
  0xb3, 0xcc, 0xf0, 0xbe, 0xb8, 0x52, 0x41, 0x3d, 0x9c, 0x51, 0xbc, 0x3e,
  0x6e, 0xdc, 0xa9, 0xbe, 0x92, 0xa3, 0x90, 0x3c, 0xc8, 0x71, 0xcc, 0x3c,
  0x25, 0x82, 0x25, 0xbf, 0x3f, 0x53, 0x9f, 0xbe, 0x4a, 0xfe, 0xff, 0xff,
  0x10, 0x00, 0x00, 0x00, 0x05, 0x00, 0x00, 0x00, 0x14, 0x00, 0x00, 0x00,
  0x2c, 0x00, 0x00, 0x00, 0x02, 0x00, 0x00, 0x00, 0x10, 0x00, 0x00, 0x00,
  0x70, 0x00, 0x00, 0x00, 0x17, 0x00, 0x00, 0x00, 0x73, 0x65, 0x71, 0x75,
  0x65, 0x6e, 0x74, 0x69, 0x61, 0x6c, 0x2f, 0x64, 0x65, 0x6e, 0x73, 0x65,
  0x2f, 0x4d, 0x61, 0x74, 0x4d, 0x75, 0x6c, 0x00, 0x38, 0xfe, 0xff, 0xff,
  0x2e, 0xff, 0xff, 0xff, 0x04, 0x00, 0x00, 0x00, 0x08, 0x00, 0x00, 0x00,
  0xff, 0xff, 0xff, 0xff, 0x70, 0x00, 0x00, 0x00, 0x00, 0x00, 0x0e, 0x00,
  0x18, 0x00, 0x08, 0x00, 0x07, 0x00, 0x0c, 0x00, 0x10, 0x00, 0x14, 0x00,
  0x0e, 0x00, 0x00, 0x00, 0x00, 0x00, 0x00, 0x02, 0x10, 0x00, 0x00, 0x00,
  0x04, 0x00, 0x00, 0x00, 0x10, 0x00, 0x00, 0x00, 0x2c, 0x00, 0x00, 0x00,
  0x01, 0x00, 0x00, 0x00, 0x02, 0x00, 0x00, 0x00, 0x18, 0x00, 0x00, 0x00,
  0x73, 0x65, 0x71, 0x75, 0x65, 0x6e, 0x74, 0x69, 0x61, 0x6c, 0x2f, 0x66,
  0x6c, 0x61, 0x74, 0x74, 0x65, 0x6e, 0x2f, 0x43, 0x6f, 0x6e, 0x73, 0x74,
  0x00, 0x00, 0x00, 0x00, 0xa0, 0xfe, 0xff, 0xff, 0x96, 0xff, 0xff, 0xff,
  0x04, 0x00, 0x00, 0x00, 0x0c, 0x00, 0x00, 0x00, 0xce, 0xe3, 0x3b, 0xbc,
  0xd2, 0xbe, 0x4c, 0x3f, 0x1e, 0xdf, 0xb6, 0xbf, 0x0a, 0xff, 0xff, 0xff,
  0x10, 0x00, 0x00, 0x00, 0x03, 0x00, 0x00, 0x00, 0x10, 0x00, 0x00, 0x00,
  0x3c, 0x00, 0x00, 0x00, 0x01, 0x00, 0x00, 0x00, 0x03, 0x00, 0x00, 0x00,
  0x29, 0x00, 0x00, 0x00, 0x73, 0x65, 0x71, 0x75, 0x65, 0x6e, 0x74, 0x69,
  0x61, 0x6c, 0x2f, 0x64, 0x65, 0x6e, 0x73, 0x65, 0x5f, 0x31, 0x2f, 0x42,
  0x69, 0x61, 0x73, 0x41, 0x64, 0x64, 0x2f, 0x52, 0x65, 0x61, 0x64, 0x56,
  0x61, 0x72, 0x69, 0x61, 0x62, 0x6c, 0x65, 0x4f, 0x70, 0x00, 0x00, 0x00,
  0x60, 0xff, 0xff, 0xff, 0x00, 0x00, 0x06, 0x00, 0x08, 0x00, 0x04, 0x00,
  0x06, 0x00, 0x00, 0x00, 0x04, 0x00, 0x00, 0x00, 0x40, 0x00, 0x00, 0x00,
  0x0b, 0x60, 0x21, 0xbe, 0x2f, 0x90, 0x4f, 0xbe, 0x71, 0xd2, 0x39, 0xbe,
  0x44, 0x09, 0x8a, 0x3c, 0x1f, 0x33, 0x95, 0xbe, 0x86, 0x74, 0xa1, 0xbe,
  0xd1, 0xf4, 0x95, 0xbd, 0xec, 0xb8, 0x14, 0x3d, 0xca, 0x00, 0x8a, 0x3f,
  0x81, 0x70, 0x56, 0x3f, 0x13, 0x61, 0xc5, 0x3e, 0x2a, 0xd2, 0x66, 0xbe,
  0x2a, 0x04, 0xa3, 0xbe, 0x8d, 0x8c, 0x6f, 0xbe, 0x23, 0xc1, 0xa8, 0x3e,
  0x0e, 0xbb, 0xa0, 0x3f, 0xae, 0xff, 0xff, 0xff, 0x10, 0x00, 0x00, 0x00,
  0x02, 0x00, 0x00, 0x00, 0x10, 0x00, 0x00, 0x00, 0x3c, 0x00, 0x00, 0x00,
  0x01, 0x00, 0x00, 0x00, 0x10, 0x00, 0x00, 0x00, 0x27, 0x00, 0x00, 0x00,
  0x73, 0x65, 0x71, 0x75, 0x65, 0x6e, 0x74, 0x69, 0x61, 0x6c, 0x2f, 0x64,
  0x65, 0x6e, 0x73, 0x65, 0x2f, 0x42, 0x69, 0x61, 0x73, 0x41, 0x64, 0x64,
  0x2f, 0x52, 0x65, 0x61, 0x64, 0x56, 0x61, 0x72, 0x69, 0x61, 0x62, 0x6c,
  0x65, 0x4f, 0x70, 0x00, 0x04, 0x00, 0x06, 0x00, 0x04, 0x00, 0x00, 0x00,
  0x00, 0x00, 0x0e, 0x00, 0x14, 0x00, 0x04, 0x00, 0x00, 0x00, 0x08, 0x00,
  0x0c, 0x00, 0x10, 0x00, 0x0e, 0x00, 0x00, 0x00, 0x10, 0x00, 0x00, 0x00,
  0x01, 0x00, 0x00, 0x00, 0x1c, 0x00, 0x00, 0x00, 0x2c, 0x00, 0x00, 0x00,
  0x04, 0x00, 0x00, 0x00, 0x01, 0x00, 0x00, 0x00, 0x40, 0x00, 0x00, 0x00,
  0x03, 0x00, 0x00, 0x00, 0x01, 0x00, 0x00, 0x00, 0x0c, 0x00, 0x00, 0x00,
  0x63, 0x6f, 0x6e, 0x76, 0x32, 0x64, 0x5f, 0x69, 0x6e, 0x70, 0x75, 0x74,
  0x00, 0x00, 0x00, 0x00, 0xfc, 0xff, 0xff, 0xff, 0x04, 0x00, 0x04, 0x00,
  0x04, 0x00, 0x00, 0x00
};

unsigned int model_tflite_len = 12316;// Fill the int in `src/model.cc` here